{
  "version": "1.0",
  "truncation": null,
  "padding": null,
  "added_tokens": [
    {
      "id": 0,
      "content": "[PAD]",
      "single_word": false,
      "lstrip": false,
      "rstrip": false,
      "normalized": false,
      "special": true
    },
    {
      "id": 1,
      "content": "[UNK]",
      "single_word": false,
      "lstrip": false,
      "rstrip": false,
      "normalized": false,
      "special": true
    },
    {
      "id": 2,
      "content": "[BOS]",
      "single_word": false,
      "lstrip": false,
      "rstrip": false,
      "normalized": false,
      "special": true
    },
    {
      "id": 3,
      "content": "[EOS]",
      "single_word": false,
      "lstrip": false,
      "rstrip": false,
      "normalized": false,
      "special": true
    }
  ],
  "normalizer": {
    "type": "Sequence",
    "normalizers": [
      {
        "type": "NFKC"
      },
      {
        "type": "Lowercase"
      }
    ]
  },
  "pre_tokenizer": {
    "type": "ByteLevel",
    "add_prefix_space": true,
    "trim_offsets": true,
    "use_regex": true
  },
  "post_processor": null,
  "decoder": {
    "type": "ByteLevel",
    "add_prefix_space": true,
    "trim_offsets": true,
    "use_regex": true
  },
  "model": {
    "type": "BPE",
    "dropout": null,
    "unk_token": "[UNK]",
    "continuing_subword_prefix": null,
    "end_of_word_suffix": null,
    "fuse_unk": false,
    "byte_fallback": false,
    "ignore_merges": false,
    "vocab": {
      "[PAD]": 0,
      "[UNK]": 1,
      "[BOS]": 2,
      "[EOS]": 3,
      "!": 4,
      "\"": 5,
      "#": 6,
      "$": 7,
      "%": 8,
      "&": 9,
      "'": 10,
      "(": 11,
      ")": 12,
      "*": 13,
      "+": 14,
      ",": 15,
      "-": 16,
      ".": 17,
      "/": 18,
      "0": 19,
      "1": 20,
      "2": 21,
      "3": 22,
      "4": 23,
      "5": 24,
      "6": 25,
      "7": 26,
      "8": 27,
      "9": 28,
      ":": 29,
      ";": 30,
      "<": 31,
      "=": 32,
      ">": 33,
      "?": 34,
      "@": 35,
      "[": 36,
      "\\": 37,
      "]": 38,
      "^": 39,
      "_": 40,
      "`": 41,
      "a": 42,
      "b": 43,
      "c": 44,
      "d": 45,
      "e": 46,
      "f": 47,
      "g": 48,
      "h": 49,
      "i": 50,
      "j": 51,
      "k": 52,
      "l": 53,
      "m": 54,
      "n": 55,
      "o": 56,
      "p": 57,
      "q": 58,
      "r": 59,
      "s": 60,
      "t": 61,
      "u": 62,
      "v": 63,
      "w": 64,
      "x": 65,
      "y": 66,
      "z": 67,
      "{": 68,
      "|": 69,
      "}": 70,
      "~": 71,
      "¡": 72,
      "¢": 73,
      "£": 74,
      "¤": 75,
      "¥": 76,
      "¦": 77,
      "§": 78,
      "¨": 79,
      "©": 80,
      "ª": 81,
      "«": 82,
      "¬": 83,
      "®": 84,
      "¯": 85,
      "°": 86,
      "±": 87,
      "²": 88,
      "³": 89,
      "´": 90,
      "µ": 91,
      "¶": 92,
      "·": 93,
      "¸": 94,
      "¹": 95,
      "º": 96,
      "»": 97,
      "¼": 98,
      "½": 99,
      "¾": 100,
      "¿": 101,
      "Â": 102,
      "Ã": 103,
      "Ä": 104,
      "Å": 105,
      "Æ": 106,
      "Ç": 107,
      "È": 108,
      "É": 109,
      "Ê": 110,
      "Ë": 111,
      "Ì": 112,
      "Í": 113,
      "Î": 114,
      "Ï": 115,
      "Ð": 116,
      "Ñ": 117,
      "Ò": 118,
      "Ó": 119,
      "Ô": 120,
      "Õ": 121,
      "Ö": 122,
      "×": 123,
      "Ø": 124,
      "Ù": 125,
      "Ú": 126,
      "Û": 127,
      "Ü": 128,
      "Ý": 129,
      "Þ": 130,
      "ß": 131,
      "à": 132,
      "á": 133,
      "â": 134,
      "ã": 135,
      "ä": 136,
      "å": 137,
      "æ": 138,
      "ç": 139,
      "è": 140,
      "é": 141,
      "ê": 142,
      "ë": 143,
      "ì": 144,
      "í": 145,
      "î": 146,
      "ï": 147,
      "ð": 148,
      "ñ": 149,
      "ó": 150,
      "Ċ": 151,
      "Ġ": 152,
      "ġ": 153,
      "Ģ": 154,
      "ģ": 155,
      "Ĥ": 156,
      "ĥ": 157,
      "Ħ": 158,
      "ħ": 159,
      "Ĩ": 160,
      "ĩ": 161,
      "Ī": 162,
      "ī": 163,
      "Ĭ": 164,
      "ĭ": 165,
      "Į": 166,
      "į": 167,
      "İ": 168,
      "ı": 169,
      "Ĳ": 170,
      "ĳ": 171,
      "Ĵ": 172,
      "ĵ": 173,
      "Ķ": 174,
      "ķ": 175,
      "ĸ": 176,
      "Ĺ": 177,
      "ĺ": 178,
      "Ļ": 179,
      "ļ": 180,
      "Ľ": 181,
      "ľ": 182,
      "Ŀ": 183,
      "ŀ": 184,
      "Ł": 185,
      "ł": 186,
      "Ń": 187,
      "Ġt": 188,
      "Ġa": 189,
      "he": 190,
      "in": 191,
      "Ġthe": 192,
      "re": 193,
      "Ġs": 194,
      "on": 195,
      "er": 196,
      "Ġw": 197,
      "Ġc": 198,
      "Ġo": 199,
      "at": 200,
      "Ġb": 201,
      "en": 202,
      "it": 203,
      "Ġp": 204,
      "Ġf": 205,
      "is": 206,
      "an": 207,
      "Ġm": 208,
      "or": 209,
      "ed": 210,
      "es": 211,
      "ing": 212,
      "Ġan": 213,
      "ou": 214,
      "Ġin": 215,
      "Ġto": 216,
      "Ġd": 217,
      "al": 218,
      "ar": 219,
      "Ġh": 220,
      "Ġof": 221,
      "Ġth": 222,
      "Ġand": 223,
      "as": 224,
      "Ġl": 225,
      "ic": 226,
      "âĢ": 227,
      "Ġn": 228,
      "ion": 229,
      "om": 230,
      "le": 231,
      "Ġg": 232,
      "Ġre": 233,
      "Ġe": 234,
      "ent": 235,
      "ll": 236,
      "st": 237,
      "ve": 238,
      "ro": 239,
      "Ġbe": 240,
      "ly": 241,
      "id": 242,
      "ut": 243,
      "ac": 244,
      "ot": 245,
      "Ġon": 246,
      "Ġu": 247,
      "Ġthat": 248,
      "Ġi": 249,
      "Ġis": 250,
      "Ġst": 251,
      "et": 252,
      "ay": 253,
      "Ġfor": 254,
      "am": 255,
      "ad": 256,
      "Ġhe": 257,
      "se": 258,
      "ow": 259,
      "Ġy": 260,
      "Ġit": 261,
      "ig": 262,
      "âĢĻ": 263,
      "ver": 264,
      "ct": 265,
      "ld": 266,
      "ur": 267,
      "Ġwh": 268,
      "im": 269,
      "Ġwe": 270,
      "Ġr": 271,
      "Ġas": 272,
      "ation": 273,
      "ir": 274,
      "ith": 275,
      "ce": 276,
      "ter": 277,
      "Ġwith": 278,
      "ol": 279,
      "il": 280,
      "Ġde": 281,
      "ĠâĢ": 282,
      "Ġyou": 283,
      "ch": 284,
      "Ġcon": 285,
      "Ġj": 286,
      "ill": 287,
      "Ġwas": 288,
      "ke": 289,
      "Ġse": 290,
      "ers": 291,
      "Ġat": 292,
      "Ġmo": 293,
      "Ġne": 294,
      "Ġpro": 295,
      "Ġfr": 296,
      "her": 297,
      "Ġcom": 298,
      "Ġha": 299,
      "Ġv": 300,
      "ate": 301,
      "ag": 302,
      "un": 303,
      "Ġ1": 304,
      "ul": 305,
      "pp": 306,
      "Ġare": 307,
      "Ġch": 308,
      "ment": 309,
      "us": 310,
      "est": 311,
      "and": 312,
      "ist": 313,
      "th": 314,
      "op": 315,
      "Ġ2": 316,
      "Ġthis": 317,
      "ain": 318,
      "ri": 319,
      "Ġex": 320,
      "Ġk": 321,
      "oun": 322,
      "igh": 323,
      "Ġal": 324,
      "Ġsu": 325,
      "Ġnot": 326,
      "Ġun": 327,
      "Ġor": 328,
      "res": 329,
      "Ġ(": 330,
      "Ġsh": 331,
      "ab": 332,
      "Ġby": 333,
      "ĠâĢľ": 334,
      "âĢĿ": 335,
      "ess": 336,
      "Ġhave": 337,
      "oo": 338,
      "ity": 339,
      "if": 340,
      "um": 341,
      "ould": 342,
      "Ġfrom": 343,
      "Ġtr": 344,
      "ort": 345,
      "ant": 346,
      "qu": 347,
      "ive": 348,
      "Ġbut": 349,
      "os": 350,
      "'s": 351,
      "art": 352,
      "Ġle": 353,
      "oc": 354,
      "em": 355,
      "Ġab": 356,
      "pe": 357,
      "Ġsa": 358,
      "ight": 359,
      "ust": 360,
      "red": 361,
      "Ġpl": 362,
      "Ġ\"": 363,
      "ies": 364,
      "end": 365,
      "ie": 366,
      "Ġthey": 367,
      "out": 368,
      "all": 369,
      "ack": 370,
      "Ġhis": 371,
      "Ġhas": 372,
      "el": 373,
      "Ġwor": 374,
      "ally": 375,
      "00": 376,
      "Ġwhe": 377,
      "Ġdo": 378,
      "iv": 379,
      "ard": 380,
      "ap": 381,
      "Ġcan": 382,
      "ome": 383,
      "gh": 384,
      "Ġgo": 385,
      "Ġall": 386,
      "ast": 387,
      "our": 388,
      "ak": 389,
      "ud": 390,
      "Ġwill": 391,
      "ren": 392,
      "ear": 393,
      "Ġar": 394,
      "Ġad": 395,
      "ge": 396,
      "Ġso": 397,
      "Ġsaid": 398,
      "ich": 399,
      "Ġwho": 400,
      "Ġint": 401,
      "Ġus": 402,
      "Ġme": 403,
      "Ġcl": 404,
      "ide": 405,
      "ough": 406,
      "Ġout": 407,
      "Ġli": 408,
      "Ġtheir": 409,
      "ame": 410,
      "Ġmore": 411,
      "ans": 412,
      "ther": 413,
      "ial": 414,
      "Ġup": 415,
      "Ġone": 416,
      "ice": 417,
      "pl": 418,
      "ound": 419,
      "Ġte": 420,
      "Ġco": 421,
      "Ġnew": 422,
      "one": 423,
      "ect": 424,
      "pt": 425,
      "ff": 426,
      "act": 427,
      "Ġen": 428,
      "Ġim": 429,
      "age": 430,
      "ure": 431,
      "ions": 432,
      "ous": 433,
      "ong": 434,
      "ine": 435,
      "Ġac": 436,
      "Ġabout": 437,
      "Ġsp": 438,
      "Ġman": 439,
      "ated": 440,
      "Ġag": 441,
      "ber": 442,
      "der": 443,
      "Ġthere": 444,
      "Ġcont": 445,
      "Ġam": 446,
      "ia": 447,
      "ore": 448,
      "ime": 449,
      "Ġoff": 450,
      "Ġhad": 451,
      "Ġcomp": 452,
      "Ġwere": 453,
      "Ġif": 454,
      "ra": 455,
      "Ġwhich": 456,
      "Ġev": 457,
      "Ġwould": 458,
      "Ġ20": 459,
      "Ġro": 460,
      "Ġpe": 461,
      "ake": 462,
      "very": 463,
      "Ġno": 464,
      "Ġsc": 465,
      "so": 466,
      "iz": 467,
      "ind": 468,
      "per": 469,
      "ub": 470,
      "Ġwhen": 471,
      "Ġpo": 472,
      "ue": 473,
      "ks": 474,
      "Ġbeen": 475,
      "Ġlike": 476,
      "Ġper": 477,
      "Ġwhat": 478,
      "Ġinc": 479,
      "Ġyear": 480,
      "au": 481,
      "Ġfe": 482,
      "Ġres": 483,
      "ary": 484,
      "Ġsome": 485,
      "ace": 486,
      "Ġpr": 487,
      "ip": 488,
      "Ġother": 489,
      "ign": 490,
      "ays": 491,
      "og": 492,
      "Ġaf": 493,
      "Ġapp": 494,
      "able": 495,
      "Ġdis": 496,
      "Ġpart": 497,
      "ite": 498,
      "ry": 499,
      "Ġqu": 500,
      "..": 501,
      "ass": 502,
      "Ġover": 503,
      "Ġtw": 504,
      "Ġbec": 505,
      "ood": 506,
      "Ġrep": 507,
      "are": 508,
      "Ġjust": 509,
      "Ġgr": 510,
      "ile": 511,
      "ire": 512,
      "Ġthan": 513,
      "Ġalso": 514,
      "ence": 515,
      "Ġhow": 516,
      "ople": 517,
      "Ġ201": 518,
      "king": 519,
      "Ġmy": 520,
      "Ġyour": 521,
      "Ġshe": 522,
      "ations": 523,
      "ult": 524,
      "int": 525,
      "Ġpeople": 526,
      "ical": 527,
      "own": 528,
      "ress": 529,
      "Ġher": 530,
      "ree": 531,
      "Ġthem": 532,
      "ose": 533,
      "ance": 534,
      "ount": 535,
      "Ġany": 536,
      "ail": 537,
      "Ġbl": 538,
      "for": 539,
      "Ġkn": 540,
      "av": 541,
      "ib": 542,
      "Ġmar": 543,
      "Ġrec": 544,
      "Ġtime": 545,
      "Ġget": 546,
      "Ġcomm": 547,
      "we": 548,
      "Ġits": 549,
      "ase": 550,
      "Ġfir": 551,
      "ru": 552,
      "Ġpol": 553,
      "Ġ3": 554,
      "Ġact": 555,
      "Ġafter": 556,
      "od": 557,
      "ach": 558,
      "ens": 559,
      "Ġbr": 560,
      "Ġpre": 561,
      "reat": 562,
      "Ġour": 563,
      "ord": 564,
      ".âĢĿ": 565,
      "du": 566,
      "Ġinto": 567,
      "vel": 568,
      "ian": 569,
      "Ġacc": 570,
      "lic": 571,
      "con": 572,
      "Ġplay": 573,
      "day": 574,
      "fe": 575,
      "the": 576,
      "ory": 577,
      "Ġfirst": 578,
      "ident": 579,
      "Ġind": 580,
      "ors": 581,
      "ition": 582,
      "ings": 583,
      "Ġser": 584,
      "wn": 585,
      "ang": 586,
      "ep": 587,
      "ick": 588,
      "te": 589,
      "Ġimp": 590,
      "rent": 591,
      "Ġem": 592,
      "Ġspe": 593,
      "ause": 594,
      "hing": 595,
      "ade": 596,
      "Ġ19": 597,
      "ates": 598,
      "ook": 599,
      "Ġatt": 600,
      "amp": 601,
      "vers": 602,
      "Ġcould": 603,
      "Ġtwo": 604,
      "Ġonly": 605,
      ",âĢĿ": 606,
      "Ġinter": 607,
      "Ġnow": 608,
      "Ġhim": 609,
      "ction": 610,
      "ious": 611,
      "Ġph": 612,
      "ild": 613,
      "'t": 614,
      "Ġmost": 615,
      "Ġjo": 616,
      "ict": 617,
      "Ġdes": 618,
      "Ġdec": 619,
      "Ġla": 620,
      "hed": 621,
      "Ġmay": 622,
      "Ġbet": 623,
      "Ġback": 624,
      "Ġwork": 625,
      "Ġpres": 626,
      "form": 627,
      "ft": 628,
      "ish": 629,
      "Ġsy": 630,
      "Ġeven": 631,
      "Ġthese": 632,
      "Ġbu": 633,
      "Ġdon": 634,
      "Ġcons": 635,
      "ink": 636,
      ".\"": 637,
      "Ġfo": 638,
      "Ġmon": 639,
      "itt": 640,
      "Ġ-": 641,
      "ning": 642,
      "Ġunder": 643,
      "Ġfl": 644,
      "Ġbecause": 645,
      "Ġcr": 646,
      "Ġdid": 647,
      "Ġ4": 648,
      "Ġagain": 649,
      "ĠâĢĵ": 650,
      "ces": 651,
      "Ġstate": 652,
      "Ġadd": 653,
      "man": 654,
      "Ġevery": 655,
      "Ġinv": 656,
      "Ġob": 657,
      "ater": 658,
      "Ġsee": 659,
      "Ġwant": 660,
      "ved": 661,
      "ĠâĢĶ": 662,
      "ise": 663,
      "ck": 664,
      "sel": 665,
      "Ġ$": 666,
      "Ġke": 667,
      "ual": 668,
      "Ġyears": 669,
      "lud": 670,
      "ason": 671,
      "Ġknow": 672,
      "Ġneed": 673,
      "li": 674,
      "Ġthen": 675,
      "ne": 676,
      "ents": 677,
      "Ġmu": 678,
      "iss": 679,
      "ublic": 680,
      "Ġsupp": 681,
      "Ġ5": 682,
      "Ġlo": 683,
      "cess": 684,
      "Ġass": 685,
      "Ġmany": 686,
      "ments": 687,
      "Ġwhere": 688,
      "Ġmake": 689,
      "ced": 690,
      "Ġright": 691,
      "Ġcar": 692,
      "Ġbo": 693,
      "Ġ[": 694,
      "Ġreg": 695,
      "urn": 696,
      "fore": 697,
      "eric": 698,
      "Ġcol": 699,
      ",\"": 700,
      "Ġthr": 701,
      "Ġcount": 702,
      "Ġrem": 703,
      "Ġworld": 704,
      "Ġwhile": 705,
      "Ġmin": 706,
      "Ġlast": 707,
      "gr": 708,
      "pect": 709,
      "Ġway": 710,
      "Ġsm": 711,
      "Ġed": 712,
      "Ġgu": 713,
      "ject": 714,
      "vern": 715,
      "Ġwell": 716,
      "ational": 717,
      "Ġcall": 718,
      "Ġthose": 719,
      "Ġgen": 720,
      "Ġbel": 721,
      "ull": 722,
      "Ġbeing": 723,
      "Ġpos": 724,
      "Ġfin": 725,
      "Ġdown": 726,
      "ump": 727,
      "Ġrel": 728,
      "ating": 729,
      "Ġdif": 730,
      "xt": 731,
      "Ġshow": 732,
      "Ġdef": 733,
      "Ġinst": 734,
      "Ġthrough": 735,
      "lect": 736,
      "row": 737,
      "Ġinclud": 738,
      "ily": 739,
      "Ġgovern": 740,
      "ving": 741,
      "Ġear": 742,
      "oup": 743,
      "Ġshould": 744,
      "aking": 745,
      "ased": 746,
      "Ġsay": 747,
      "iew": 748,
      "ath": 749,
      "Ġform": 750,
      "Ġvery": 751,
      "Ġmuch": 752,
      "rib": 753,
      "ited": 754,
      "ty": 755,
      "get": 756,
      "Ġtoo": 757,
      "les": 758,
      "Ġwar": 759,
      "Ġend": 760,
      "Ġbefore": 761,
      "ities": 762,
      "other": 763,
      "Ġdoes": 764,
      "uring": 765,
      "Ġlong": 766,
      "Ġuse": 767,
      "Ġmed": 768,
      "Ġ200": 769,
      "Ġown": 770,
      "Ġchar": 771,
      "ics": 772,
      "ative": 773,
      "Ġreport": 774,
      ").": 775,
      "Ġstud": 776,
      "ys": 777,
      "Ġteam": 778,
      "ons": 779,
      "Ġameric": 780,
      "Ġwr": 781,
      "ting": 782,
      "Ġbot": 783,
      "Ġstart": 784,
      "als": 785,
      "ied": 786,
      "ward": 787,
      "ower": 788,
      "Ġgood": 789,
      "Ġsub": 790,
      "Ġdem": 791,
      "Ġsim": 792,
      "ange": 793,
      "Ġfun": 794,
      "Ġhere": 795,
      "ters": 796,
      "Ġcent": 797,
      "ts": 798,
      "ific": 799,
      "Ġsur": 800,
      "ince": 801,
      "Ġsuch": 802,
      "omet": 803,
      "Ġgame": 804,
      "Ġent": 805,
      "ock": 806,
      "llow": 807,
      "Ġthink": 808,
      "de": 809,
      "ues": 810,
      "ible": 811,
      "Ġhel": 812,
      "Ġset": 813,
      "old": 814,
      "ble": 815,
      "Ġstr": 816,
      "Ġwee": 817,
      "ife": 818,
      "Ġmade": 819,
      "Ġcour": 820,
      "Ġop": 821,
      "ms": 822,
      "Ġstill": 823,
      "co": 824,
      "Ġeff": 825,
      "olog": 826,
      "Ġhigh": 827,
      "Ġ6": 828,
      "Ġgoing": 829,
      "rest": 830,
      "Ġlaw": 831,
      "tain": 832,
      "Ġdep": 833,
      "up": 834,
      "ular": 835,
      "Ġma": 836,
      "Ġpoint": 837,
      "erson": 838,
      "Ġpar": 839,
      "Ġlead": 840,
      "ility": 841,
      "ually": 842,
      "ful": 843,
      "ists": 844,
      "Ġagainst": 845,
      "Ġprodu": 846,
      "its": 847,
      "Ġter": 848,
      "ix": 849,
      "Ġthough": 850,
      "Ġtrans": 851,
      "Ġprov": 852,
      "Ġoffic": 853,
      "âĢĶ": 854,
      "Ġcap": 855,
      "Ġtake": 856,
      "...": 857,
      "Ġgovernment": 858,
      "stem": 859,
      "Ġsec": 860,
      "ond": 861,
      "gan": 862,
      "Ġsign": 863,
      "Ġhelp": 864,
      "Ġexp": 865,
      "ves": 866,
      "Ġinte": 867,
      "Ġins": 868,
      "Ġread": 869,
      "ost": 870,
      "Ġfound": 871,
      "Ġmem": 872,
      "Ġmat": 873,
      "Ġsch": 874,
      "ism": 875,
      "Ġpresident": 876,
      "Ġsays": 877,
      "),": 878,
      "cy": 879,
      "illion": 880,
      "imes": 881,
      "ween": 882,
      "way": 883,
      "ph": 884,
      "Ġcor": 885,
      "Ġsomet": 886,
      "000": 887,
      "io": 888,
      "Ġche": 889,
      "self": 890,
      "Ġsl": 891,
      "Ġnum": 892,
      "Ġbro": 893,
      "Ġbetween": 894,
      "Ġsame": 895,
      "Ġday": 896,
      "Ġdiffe": 897,
      "Ġgroup": 898,
      "Ġreal": 899,
      "Ġgreat": 900,
      "Ġthree": 901,
      "oy": 902,
      "Ġrun": 903,
      "Ġcur": 904,
      "Ġsystem": 905,
      "com": 906,
      "ures": 907,
      "Ġspec": 908,
      "read": 909,
      "Ġsince": 910,
      "Ġpublic": 911,
      "ution": 912,
      "ven": 913,
      "Ġz": 914,
      "Ġaut": 915,
      "Ġduring": 916,
      "ked": 917,
      "uss": 918,
      "land": 919,
      "Ġpa": 920,
      "cent": 921,
      "ss": 922,
      "Ġcompan": 923,
      "Ġboth": 924,
      "Ġdet": 925,
      "ton": 926,
      "eral": 927,
      "Ġaround": 928,
      "led": 929,
      "Ġwom": 930,
      "ames": 931,
      "Ġret": 932,
      "gg": 933,
      "Ġfollow": 934,
      "Ġ10": 935,
      "Ġdr": 936,
      "Ġsoc": 937,
      "Ġbig": 938,
      "be": 939,
      "Ġsupport": 940,
      "Ġdire": 941,
      "velop": 942,
      "hip": 943,
      "Ġtrump": 944,
      "Ġfam": 945,
      "Ġ7": 946,
      "ives": 947,
      "ork": 948,
      ".[": 949,
      "Ġhand": 950,
      "Ġext": 951,
      "Ġpost": 952,
      "Ġnor": 953,
      "Ġreally": 954,
      "ather": 955,
      "Ġbus": 956,
      "Ġused": 957,
      "ah": 958,
      "Ġleg": 959,
      "ouse": 960,
      "Ġsen": 961,
      "ale": 962,
      "cept": 963,
      "cer": 964,
      "ds": 965,
      "hes": 966,
      "Ġmet": 967,
      "Ġexper": 968,
      "lo": 969,
      "Ġconf": 970,
      "Ġdevelop": 971,
      "Ġlet": 972,
      "Ġfact": 973,
      "Ġcle": 974,
      "ner": 975,
      "ying": 976,
      "Ġlar": 977,
      "Ġfind": 978,
      "Ġanother": 979,
      "Ġel": 980,
      "Ġhapp": 981,
      "ins": 982,
      "cl": 983,
      "Ġart": 984,
      "Ġcre": 985,
      "pr": 986,
      "ool": 987,
      "alth": 988,
      "Ġtal": 989,
      "Ġnews": 990,
      "ax": 991,
      "Ġweek": 992,
      "Ġpolit": 993,
      "ient": 994,
      "Ġcommun": 995,
      "Ġfil": 996,
      "Ġperson": 997,
      "ger": 998,
      "Ġ8": 999,
      "Ġput": 1000,
      "ices": 1001,
      "Ġfar": 1002,
      "air": 1003,
      "Ġlook": 1004,
      "ience": 1005,
      "uc": 1006,
      "Ġmark": 1007,
      "min": 1008,
      "Ġuni": 1009,
      "Ġcity": 1010,
      "az": 1011,
      "Ġiss": 1012,
      "Ġprot": 1013,
      "ever": 1014,
      "Ġinf": 1015,
      "Ġmonth": 1016,
      "Ġ'": 1017,
      "Ġplan": 1018,
      "ave": 1019,
      "Ġcontin": 1020,
      "Ġloc": 1021,
      "ines": 1022,
      "Ġlife": 1023,
      "Ġexpl": 1024,
      "Ġ9": 1025,
      "bs": 1026,
      "Ġdirect": 1027,
      "Ġlot": 1028,
      "Ġpower": 1029,
      "Ġcamp": 1030,
      "Ġtold": 1031,
      "Ġfew": 1032,
      "Ġinvest": 1033,
      "ision": 1034,
      "akes": 1035,
      "Ġopen": 1036,
      "Ġsecon": 1037,
      "ically": 1038,
      "Ġeach": 1039,
      "Ġpri": 1040,
      "ages": 1041,
      "ared": 1042,
      "Ġopp": 1043,
      "Ġdist": 1044,
      "Ġadv": 1045,
      "Ġrequ": 1046,
      "iet": 1047,
      "arch": 1048,
      "ording": 1049,
      "Ġref": 1050,
      "Ġbelie": 1051,
      "Ġeng": 1052,
      "Ġpolice": 1053,
      "Ġhead": 1054,
      "Ġintern": 1055,
      "Ġresp": 1056,
      "Ġhum": 1057,
      "Ġnever": 1058,
      "Ġpass": 1059,
      "Ġpat": 1060,
      "Ġrele": 1061,
      "Ġnext": 1062,
      "Ġbest": 1063,
      "Ġchild": 1064,
      "Ġ0": 1065,
      "Ġsomething": 1066,
      "Ġav": 1067,
      "Ġ.": 1068,
      "Ġthings": 1069,
      "ially": 1070,
      "med": 1071,
      "Ġdifferent": 1072,
      "ash": 1073,
      "ized": 1074,
      "Ġval": 1075,
      "Ġvot": 1076,
      "bers": 1077,
      "ention": 1078,
      "ata": 1079,
      "ank": 1080,
      "Ġcome": 1081,
      "Ġserv": 1082,
      "Ġmil": 1083,
      "cc": 1084,
      "Ġseason": 1085,
      "Ġbre": 1086,
      "ĠâĢĺ": 1087,
      "to": 1088,
      "ute": 1089,
      "ned": 1090,
      "Ġhome": 1091,
      "Ġquest": 1092,
      "Ġgot": 1093,
      "erg": 1094,
      "tern": 1095,
      "Ġposs": 1096,
      "Ġtech": 1097,
      "ets": 1098,
      "Ġtop": 1099,
      "Ġmight": 1100,
      "thing": 1101,
      "ten": 1102,
      "view": 1103,
      "Ġbar": 1104,
      "Ġce": 1105,
      "ross": 1106,
      "ize": 1107,
      "ody": 1108,
      "iness": 1109,
      "Ġcare": 1110,
      "anc": 1111,
      "Ġschool": 1112,
      "Ġstates": 1113,
      "Ġcontro": 1114,
      "Ġhowever": 1115,
      "Ġwhy": 1116,
      "ier": 1117,
      "Ġhard": 1118,
      "Ġaccording": 1119,
      "Ġann": 1120,
      "son": 1121,
      "ants": 1122,
      "Ġinform": 1123,
      "Ġnational": 1124,
      "Ġfour": 1125,
      "ene": 1126,
      "ric": 1127,
      "ness": 1128,
      "Ġtri": 1129,
      "Ġwithout": 1130,
      "Ġstand": 1131,
      "Ġallow": 1132,
      "br": 1133,
      "Ġste": 1134,
      "Ġmus": 1135,
      "Ġhouse": 1136,
      "ital": 1137,
      "Ġbuild": 1138,
      "Ġra": 1139,
      "Ġfeel": 1140,
      "ield": 1141,
      "Ġsecond": 1142,
      "Ġincre": 1143,
      "Ġpop": 1144,
      "Ġwin": 1145,
      "wh": 1146,
      "Ġcomple": 1147,
      "Ġseem": 1148,
      "ittle": 1149,
      "Ġresult": 1150,
      "Ġsk": 1151,
      "Ġsw": 1152,
      "Ġplace": 1153,
      "Ġpercent": 1154,
      "ret": 1155,
      "Ġeu": 1156,
      "atch": 1157,
      "Ġturn": 1158,
      "ired": 1159,
      "Ġide": 1160,
      "Ġimport": 1161,
      "conom": 1162,
      "gram": 1163,
      "Ġwon": 1164,
      "Ġlittle": 1165,
      "line": 1166,
      "Ġnumber": 1167,
      "Ġair": 1168,
      "Ġproble": 1169,
      "less": 1170,
      "Ġdisc": 1171,
      "Ġhealth": 1172,
      "Ġty": 1173,
      "Ġmain": 1174,
      "Ġincluding": 1175,
      "Ġtest": 1176,
      "Ġfull": 1177,
      "Ġrecent": 1178,
      "ama": 1179,
      "Ġmillion": 1180,
      "orn": 1181,
      "sc": 1182,
      "me": 1183,
      "Ġcountry": 1184,
      "Ġinterest": 1185,
      "Ġhar": 1186,
      "ately": 1187,
      "Ġbetter": 1188,
      "Ġprof": 1189,
      "Ġbeh": 1190,
      "Ġrese": 1191,
      "Ġsol": 1192,
      "Ġpartic": 1193,
      "Ġeconom": 1194,
      "Ġcase": 1195,
      "Ġless": 1196,
      "Ġchr": 1197,
      "Ġprogram": 1198,
      "Ġkeep": 1199,
      "Ġtimes": 1200,
      "Ġrest": 1201,
      "Ġes": 1202,
      "gress": 1203,
      "rat": 1204,
      "Ġappro": 1205,
      "iting": 1206,
      "Ġusing": 1207,
      "Ġprev": 1208,
      "oney": 1209,
      "Ġleft": 1210,
      "sh": 1211,
      "ways": 1212,
      "osed": 1213,
      "Ġeas": 1214,
      "Ġpay": 1215,
      "ted": 1216,
      "Ġhist": 1217,
      "ished": 1218,
      "Ġwomen": 1219,
      "aim": 1220,
      "ably": 1221,
      "20": 1222,
      "ral": 1223,
      "ug": 1224,
      "Ġloo": 1225,
      "Ġdri": 1226,
      "Ġattack": 1227,
      "Ġfree": 1228,
      "Ġcalled": 1229,
      "Ġmove": 1230,
      "Ġdata": 1231,
      "Ġeffect": 1232,
      "ark": 1233,
      "Ġgiv": 1234,
      "Ġface": 1235,
      "Ġmaj": 1236,
      "Ġve": 1237,
      "Ġtechn": 1238,
      "__": 1239,
      "ling": 1240,
      "Ġmod": 1241,
      "Ġlist": 1242,
      "Ġproject": 1243,
      "Ġcompany": 1244,
      "ised": 1245,
      "ency": 1246,
      "ont": 1247,
      "Ġnear": 1248,
      "ina": 1249,
      "Ġele": 1250,
      "Ġconst": 1251,
      "Ġdidn": 1252,
      "att": 1253,
      "Ġlevel": 1254,
      "Ġbusiness": 1255,
      "Ġmiss": 1256,
      "Ġcurrent": 1257,
      "Ġunivers": 1258,
      "hen": 1259,
      "Ġsmall": 1260,
      "ged": 1261,
      "Ġclass": 1262,
      "ration": 1263,
      "ider": 1264,
      "ered": 1265,
      "Ġstory": 1266,
      "Ġamerican": 1267,
      "ract": 1268,
      "Ġorgan": 1269,
      "Ġchange": 1270,
      "Ġvis": 1271,
      "Ġlater": 1272,
      "Ġgre": 1273,
      "Ġmajor": 1274,
      "pped": 1275,
      "rence": 1276,
      "bo": 1277,
      "Ġinformation": 1278,
      "Ġdesign": 1279,
      "Ġprom": 1280,
      "hn": 1281,
      "Ġbit": 1282,
      "Ġprocess": 1283,
      "Ġcal": 1284,
      "Ġold": 1285,
      "Ġoper": 1286,
      "Ġmen": 1287,
      "Ġunited": 1288,
      "Ġest": 1289,
      "ature": 1290,
      "Ġnet": 1291,
      "Ġunt": 1292,
      "Ġedit": 1293,
      "Ġmoney": 1294,
      "Ġaff": 1295,
      "Ġofficial": 1296,
      "ined": 1297,
      "ology": 1298,
      "ense": 1299,
      "ready": 1300,
      "Ġstre": 1301,
      "Ġchang": 1302,
      "inal": 1303,
      "Ġpur": 1304,
      "ains": 1305,
      "ided": 1306,
      "'re": 1307,
      "Ġvar": 1308,
      "Ġtoday": 1309,
      "Ġhop": 1310,
      "Ġreason": 1311,
      "Ġrece": 1312,
      "hor": 1313,
      "Ġfore": 1314,
      "Ġelect": 1315,
      "Ġmean": 1316,
      "Ġbas": 1317,
      "by": 1318,
      "Ġvi": 1319,
      "Ġcost": 1320,
      "Ġalready": 1321,
      "Ġcourt": 1322,
      "Ġpolic": 1323,
      "Ġphot": 1324,
      "ends": 1325,
      "Ġpress": 1326,
      "Ġvide": 1327,
      "ertain": 1328,
      "Ġkill": 1329,
      "Ġmust": 1330,
      "Ġir": 1331,
      "Ġalways": 1332,
      "ploy": 1333,
      "Ġhuman": 1334,
      "Ġexpect": 1335,
      "ians": 1336,
      "Ġview": 1337,
      "Ġmid": 1338,
      "Ġwhite": 1339,
      "Ġparty": 1340,
      "Ġmor": 1341,
      "Ġ=": 1342,
      "used": 1343,
      "oss": 1344,
      "Ġfri": 1345,
      "ok": 1346,
      "Ġsimp": 1347,
      "Ġpast": 1348,
      "Ġthing": 1349,
      "stand": 1350,
      "ruct": 1351,
      "Ġsing": 1352,
      "Ġclaim": 1353,
      "Ġfamily": 1354,
      "Ġonce": 1355,
      "10": 1356,
      "Ġclear": 1357,
      "Ġmr": 1358,
      "Ġtax": 1359,
      "Ġrecord": 1360,
      "Ġca": 1361,
      "Ġblack": 1362,
      "Ġbill": 1363,
      "Ġdev": 1364,
      "Ġgrow": 1365,
      "aw": 1366,
      "ars": 1367,
      "no": 1368,
      "aign": 1369,
      "Ġsocial": 1370,
      "Ġ18": 1371,
      "Ġtell": 1372,
      "Ġable": 1373,
      "Ġx": 1374,
      "Ġimportant": 1375,
      "Ġdemoc": 1376,
      "Ġtra": 1377,
      "Ġ12": 1378,
      "Ġcampaign": 1379,
      "Ġaway": 1380,
      "Ġmedia": 1381,
      "Ġgames": 1382,
      "Ġmaking": 1383,
      "Ġhappen": 1384,
      "Ġfed": 1385,
      "outh": 1386,
      "Ġuntil": 1387,
      "ption": 1388,
      "mm": 1389,
      "Ġdays": 1390,
      "ik": 1391,
      "Ġsuc": 1392,
      "ior": 1393,
      "Ġeuro": 1394,
      "Ġprop": 1395,
      "rap": 1396,
      "ury": 1397,
      "ural": 1398,
      "Ġdoesn": 1399,
      "Ġline": 1400,
      "Ġwal": 1401,
      "Ġjohn": 1402,
      "Ġdi": 1403,
      "ending": 1404,
      "orts": 1405,
      "ards": 1406,
      "ample": 1407,
      "ured": 1408,
      "Ġformer": 1409,
      "acy": 1410,
      "Ġlarge": 1411,
      "Ġdeb": 1412,
      "Ġrepublic": 1413,
      "Ġkind": 1414,
      "Ġ,": 1415,
      "Ġnight": 1416,
      "Ġleast": 1417,
      "ney": 1418,
      "Ġsever": 1419,
      "Ġyet": 1420,
      "erv": 1421,
      "Ġworking": 1422,
      "Ġsit": 1423,
      "und": 1424,
      "Ġpolitical": 1425,
      "ides": 1426,
      "Ġyoun": 1427,
      "Ġ15": 1428,
      "Ġje": 1429,
      "Ġever": 1430,
      "Ġenough": 1431,
      "Ġcame": 1432,
      "ases": 1433,
      "uck": 1434,
      "Ġmarket": 1435,
      "ror": 1436,
      "gin": 1437,
      "urity": 1438,
      "Ġdeal": 1439,
      "ained": 1440,
      "gu": 1441,
      "Ġant": 1442,
      "Ġer": 1443,
      "Ġgener": 1444,
      "Ġgl": 1445,
      "Ġorder": 1446,
      "ird": 1447,
      "Ġname": 1448,
      "Ġcoun": 1449,
      "ator": 1450,
      "Ġactually": 1451,
      "Ġland": 1452,
      "ley": 1453,
      "ality": 1454,
      "Ġwater": 1455,
      "Ġseveral": 1456,
      "Ġhal": 1457,
      "Ġhaving": 1458,
      "cut": 1459,
      "ional": 1460,
      "ising": 1461,
      "ived": 1462,
      "Ġgive": 1463,
      "Ġpot": 1464,
      "Ġoften": 1465,
      "let": 1466,
      "Ġreturn": 1467,
      "augh": 1468,
      "Ġuniversity": 1469,
      "Ġsun": 1470,
      "Ġwhether": 1471,
      "Ġearly": 1472,
      "Ġevent": 1473,
      "Ġge": 1474,
      "Ġbecome": 1475,
      "Ġtook": 1476,
      "na": 1477,
      "Ġlab": 1478,
      "most": 1479,
      "Ġfut": 1480,
      "Ġred": 1481,
      "Ġauthor": 1482,
      "inc": 1483,
      "ane": 1484,
      "Ġlear": 1485,
      "Ġsure": 1486,
      "ister": 1487,
      "ries": 1488,
      "Ġperform": 1489,
      "Ġcolle": 1490,
      "ove": 1491,
      "side": 1492,
      "Ġcontrol": 1493,
      "Ġequ": 1494,
      "Ġfive": 1495,
      "Ġfac": 1496,
      "Ġcrit": 1497,
      "Ġocc": 1498,
      "ony": 1499,
      "Ġchildren": 1500,
      "Ġamong": 1501,
      "Ġsuper": 1502,
      "Ġruss": 1503,
      "Ġsal": 1504,
      "aining": 1505,
      "Ġap": 1506,
      "ster": 1507,
      "Ġplayers": 1508,
      "rop": 1509,
      "Ġ11": 1510,
      "ison": 1511,
      "ified": 1512,
      "Ġcharac": 1513,
      "Ġ199": 1514,
      "Ġorig": 1515,
      "here": 1516,
      "year": 1517,
      "aps": 1518,
      "vert": 1519,
      "Ġsour": 1520,
      "oot": 1521,
      "Ġmembers": 1522,
      "Ġfre": 1523,
      "not": 1524,
      "Ġshort": 1525,
      "Ġmeet": 1526,
      "Ġcommunity": 1527,
      "Ġsecurity": 1528,
      "icle": 1529,
      "ization": 1530,
      "Ġdoing": 1531,
      "Ġmilit": 1532,
      "Ġlight": 1533,
      "ither": 1534,
      "Ġdepart": 1535,
      "Ġnon": 1536,
      "Ġvers": 1537,
      "ering": 1538,
      "Ġvideo": 1539,
      "ember": 1540,
      "Ġinvestig": 1541,
      "lf": 1542,
      "Ġcertain": 1543,
      "aring": 1544,
      "els": 1545,
      "Ġwithin": 1546,
      "Ġquestion": 1547,
      "Ġnorth": 1548,
      "Ġappear": 1549,
      "Ġgiven": 1550,
      "Ġpriv": 1551,
      "Ġalong": 1552,
      "Ġside": 1553,
      "que": 1554,
      "Ġbook": 1555,
      "Ġprotect": 1556,
      "Ġsex": 1557,
      "Ġseen": 1558,
      "raft": 1559,
      "idence": 1560,
      "Ġproduct": 1561,
      "Ġyork": 1562,
      "Ġhour": 1563,
      "50": 1564,
      "ched": 1565,
      "Ġdesc": 1566,
      "Ġobama": 1567,
      "ought": 1568,
      "Ġfight": 1569,
      "aken": 1570,
      "ges": 1571,
      "ots": 1572,
      "Ġlocal": 1573,
      "Ġfuture": 1574,
      "Ġactiv": 1575,
      "Ġban": 1576,
      "Ġwent": 1577,
      "my": 1578,
      "Ġdemocrat": 1579,
      "Ġlove": 1580,
      "Ġhold": 1581,
      "Ġexample": 1582,
      "Ġlim": 1583,
      "mber": 1584,
      "Ġsuccess": 1585,
      "go": 1586,
      "Ġstep": 1587,
      "work": 1588,
      "ware": 1589,
      "Ġyoung": 1590,
      "ium": 1591,
      "iously": 1592,
      "Ġlikely": 1593,
      "ories": 1594,
      "Ġgeneral": 1595,
      "ones": 1596,
      "Ġfur": 1597,
      "Ġviol": 1598,
      "Ġeurope": 1599,
      "Ġdone": 1600,
      "Ġothers": 1601,
      "une": 1602,
      "Ġavail": 1603,
      "Ġconcer": 1604,
      "Ġhistory": 1605,
      "Ġasked": 1606,
      "Ġinvol": 1607,
      "Ġfollowing": 1608,
      "Ġunderstand": 1609,
      "Ġseries": 1610,
      "app": 1611,
      "Ġmonths": 1612,
      "Ġ/": 1613,
      "ball": 1614,
      "ended": 1615,
      "Ġfund": 1616,
      "Ġ]": 1617,
      "Ġcourse": 1618,
      "Ġdeath": 1619,
      "ential": 1620,
      "Ġvict": 1621,
      "ilar": 1622,
      "Ġ#": 1623,
      "Ġresearch": 1624,
      "Ġcreat": 1625,
      "Ġfail": 1626,
      "nect": 1627,
      "Ġpossible": 1628,
      "Ġproblem": 1629,
      "Ġmeans": 1630,
      "ulation": 1631,
      "ead": 1632,
      "Ġlow": 1633,
      "Ġcut": 1634,
      "ubl": 1635,
      "19": 1636,
      "Ġindust": 1637,
      "empt": 1638,
      "Ġknown": 1639,
      "Ġacross": 1640,
      "ats": 1641,
      "Ġthought": 1642,
      "Ġmag": 1643,
      "Ġgetting": 1644,
      "Ġstrong": 1645,
      "Ġprob": 1646,
      "Ġlive": 1647,
      "Ġsent": 1648,
      "Ġoffice": 1649,
      "urs": 1650,
      "Ġsat": 1651,
      "Ġtar": 1652,
      "imate": 1653,
      "ague": 1654,
      "back": 1655,
      "ggest": 1656,
      "Ġsouth": 1657,
      "Ġmom": 1658,
      "por": 1659,
      "Ġchrist": 1660,
      "Ġmass": 1661,
      "Ġident": 1662,
      "Ġaddition": 1663,
      "Ġtot": 1664,
      "itive": 1665,
      "Ġwatch": 1666,
      "Ġspace": 1667,
      "Ġsuggest": 1668,
      "ivid": 1669,
      "Ġbased": 1670,
      "Ġaccess": 1671,
      "Ġmakes": 1672,
      "verage": 1673,
      "itter": 1674,
      "Ġhig": 1675,
      "Ġcond": 1676,
      "Ġclose": 1677,
      "Ġtrad": 1678,
      "ued": 1679,
      "Ġservice": 1680,
      "Ġfire": 1681,
      "ourn": 1682,
      "Ġ2016": 1683,
      "Ġ&": 1684,
      "oci": 1685,
      "iving": 1686,
      "Ġbelieve": 1687,
      "aged": 1688,
      "Ġsix": 1689,
      "11": 1690,
      "Ġanal": 1691,
      "ler": 1692,
      "Ġrepres": 1693,
      "Ġreported": 1694,
      "nes": 1695,
      "Ġannoun": 1696,
      "Ġple": 1697,
      "Ġwind": 1698,
      "Ġspecial": 1699,
      "Ġstar": 1700,
      "Ġbad": 1701,
      "ex": 1702,
      "iety": 1703,
      "Ġglo": 1704,
      "Ġinstead": 1705,
      "ortun": 1706,
      "Ġfall": 1707,
      "Ġaccount": 1708,
      "Ġalmost": 1709,
      "Ġavailable": 1710,
      "fic": 1711,
      "Ġdel": 1712,
      "Ġfederal": 1713,
      "ances": 1714,
      "Ġ16": 1715,
      "Ġho": 1716,
      "Ġjud": 1717,
      "ien": 1718,
      "Ġkey": 1719,
      "Ġsimilar": 1720,
      "Ġpolicy": 1721,
      "ensive": 1722,
      "Ġfood": 1723,
      "Ġemploy": 1724,
      "Ġ30": 1725,
      "Ġarea": 1726,
      "itions": 1727,
      "Ġfoot": 1728,
      "Ġparticular": 1729,
      "Ġcust": 1730,
      "Ġfoc": 1731,
      "Ġpract": 1732,
      "ring": 1733,
      "lling": 1734,
      "Ġmult": 1735,
      "Ġimpro": 1736,
      "book": 1737,
      "gether": 1738,
      "Ġinternational": 1739,
      "Ġtogether": 1740,
      "Ġissue": 1741,
      "Ġfig": 1742,
      "Ġger": 1743,
      "Ġadded": 1744,
      "Ġlooking": 1745,
      "Ġrather": 1746,
      "ming": 1747,
      "Ġrights": 1748,
      "Ġassoci": 1749,
      "ateg": 1750,
      "ams": 1751,
      "Ġstarted": 1752,
      "Ġden": 1753,
      "ament": 1754,
      "Ġfurther": 1755,
      "Ġhalf": 1756,
      "Ġdou": 1757,
      "Ġport": 1758,
      "Ġ2015": 1759,
      "ald": 1760,
      "'ve": 1761,
      "pec": 1762,
      "ergy": 1763,
      "Ġrad": 1764,
      "Ġep": 1765,
      "Ġlat": 1766,
      "Ġrul": 1767,
      "aff": 1768,
      "cher": 1769,
      "Ġago": 1770,
      "Ġamerica": 1771,
      "Ġsn": 1772,
      "Ġidea": 1773,
      "ands": 1774,
      "Ġstat": 1775,
      "Ġmess": 1776,
      "Ġtrying": 1777,
      "Ġadmin": 1778,
      "pro": 1779,
      "Ġexperience": 1780,
      "selves": 1781,
      "den": 1782,
      "leg": 1783,
      "Ġenv": 1784,
      "Ġsus": 1785,
      "Ġdam": 1786,
      "Ġcommit": 1787,
      "Ġcomes": 1788,
      "ability": 1789,
      "Ġisn": 1790,
      "Ġconnect": 1791,
      "Ġpubl": 1792,
      "Ġris": 1793,
      "bal": 1794,
      ".,": 1795,
      "Ġdepartment": 1796,
      "Ġconsider": 1797,
      "Ġcanad": 1798,
      "Ġcomplete": 1799,
      "Ġmot": 1800,
      "ission": 1801,
      "uly": 1802,
      "Ġjob": 1803,
      "iter": 1804,
      "ination": 1805,
      "ids": 1806,
      "ĠÂ": 1807,
      "Ġmind": 1808,
      "Ġanything": 1809,
      "Ġindivid": 1810,
      "Ġtry": 1811,
      "Ġbene": 1812,
      "ief": 1813,
      "gest": 1814,
      "Ġpresent": 1815,
      "ails": 1816,
      "sy": 1817,
      "utes": 1818,
      "rael": 1819,
      "Ġcop": 1820,
      "Ġmilitary": 1821,
      "ron": 1822,
      "Ġ13": 1823,
      "Ġplayer": 1824,
      "Ġwa": 1825,
      "Ġcult": 1826,
      "Ġcompet": 1827,
      "aster": 1828,
      "Ġ:": 1829,
      "Ġstudy": 1830,
      "Ġbi": 1831,
      "wards": 1832,
      "Ġbehind": 1833,
      "Ġfav": 1834,
      "Ġproper": 1835,
      "12": 1836,
      "Ġaust": 1837,
      "Ġ...": 1838,
      "Ġprofess": 1839,
      "raw": 1840,
      "ann": 1841,
      "Ġquick": 1842,
      "uff": 1843,
      "Ġnothing": 1844,
      "Ġsingle": 1845,
      "rict": 1846,
      "Ġexe": 1847,
      "ference": 1848,
      "unch": 1849,
      "Ġ14": 1850,
      "gle": 1851,
      "Ġsomeone": 1852,
      "play": 1853,
      "inton": 1854,
      "Ġsaying": 1855,
      "Ġsound": 1856,
      "ators": 1857,
      "Ġhit": 1858,
      "Ġ2014": 1859,
      "Ġfilm": 1860,
      "port": 1861,
      "Ġfront": 1862,
      "Ġtaken": 1863,
      "ograp": 1864,
      "Ġdiscuss": 1865,
      "oice": 1866,
      "Ġcenter": 1867,
      "Ġindividual": 1868,
      "though": 1869,
      "Ġpen": 1870,
      "Ġconv": 1871,
      "Ġcomb": 1872,
      "Ġdevelopment": 1873,
      "par": 1874,
      "Ġdom": 1875,
      "Ġenergy": 1876,
      "Ġvir": 1877,
      "Ġtre": 1878,
      "Ġfield": 1879,
      "Ġimm": 1880,
      "sw": 1881,
      "allen": 1882,
      "Ġstri": 1883,
      "Ġadminist": 1884,
      "Ġsumm": 1885,
      "Ġthreat": 1886,
      "'m": 1887,
      "pping": 1888,
      "Ġtaking": 1889,
      "âĢĵ": 1890,
      "Ġtur": 1891,
      "Ġentire": 1892,
      "Ġnat": 1893,
      "Ġtem": 1894,
      "ocu": 1895,
      "iron": 1896,
      "uge": 1897,
      "Ġwashing": 1898,
      "Ġcustom": 1899,
      "of": 1900,
      "Ġisrael": 1901,
      "ert": 1902,
      "30": 1903,
      "Ġbody": 1904,
      "ls": 1905,
      "Ġthird": 1906,
      "Ġupd": 1907,
      "Ġ17": 1908,
      "Ġmusic": 1909,
      "Ġbring": 1910,
      "Ġredu": 1911,
      "aper": 1912,
      "Ġdav": 1913,
      "Ġwest": 1914,
      "yn": 1915,
      "Ġeverything": 1916,
      "lls": 1917,
      "Ġpret": 1918,
      "Ġwanted": 1919,
      "Ġgun": 1920,
      "ush": 1921,
      "su": 1922,
      "Ġfeat": 1923,
      "Ġmic": 1924,
      "Ġcoming": 1925,
      "Ġelse": 1926,
      "Ġpet": 1927,
      "amed": 1928,
      "Ġaction": 1929,
      "Ġey": 1930,
      "Ġfinal": 1931,
      "Ġsan": 1932,
      "ches": 1933,
      "Ġbrit": 1934,
      "Ġeither": 1935,
      "Ġchallen": 1936,
      "Ġprobably": 1937,
      "Ġda": 1938,
      "Ġscre": 1939,
      "Ġhope": 1940,
      "Ġclinton": 1941,
      "Ġtarget": 1942,
      "Ġshare": 1943,
      "Ġhy": 1944,
      "Ġwashington": 1945,
      "ps": 1946,
      "Ġhom": 1947,
      "Ġsecret": 1948,
      "Ġrev": 1949,
      "Ġattempt": 1950,
      "Ġimage": 1951,
      "Ġenc": 1952,
      "Ġadvert": 1953,
      "che": 1954,
      "Ġtit": 1955,
      "Ġcreate": 1956,
      "Ġpoints": 1957,
      "osp": 1958,
      "Ġbur": 1959,
      "Ġrepresent": 1960,
      "rug": 1961,
      "Ġinit": 1962,
      "Ġcand": 1963,
      "Ġstop": 1964,
      "Ġ|": 1965,
      "Ġcam": 1966,
      "Ġcommon": 1967,
      "Ġrelations": 1968,
      "Ġdue": 1969,
      "Ġopt": 1970,
      "Ġball": 1971,
      "Ġroom": 1972,
      "Ġcontinue": 1973,
      "cing": 1974,
      "irc": 1975,
      "Ġbegin": 1976,
      "Ġrepl": 1977,
      "Ġself": 1978,
      "rote": 1979,
      "Ġdescrib": 1980,
      "Ġforce": 1981,
      "Ġdesp": 1982,
      "olution": 1983,
      "Ã©": 1984,
      "Ġtreat": 1985,
      "Ġenviron": 1986,
      "Ġexist": 1987,
      "Ġjan": 1988,
      "oint": 1989,
      "af": 1990,
      "Ġalthough": 1991,
      ".)": 1992,
      "Ġvol": 1993,
      "Ġeveryone": 1994,
      "Ġbelow": 1995,
      "ai": 1996,
      "ify": 1997,
      "Ġuk": 1998,
      "Ġbreak": 1999,
      "Ġsignific": 2000,
      "erc": 2001,
      "Ġur": 2002,
      "Ġtrue": 2003,
      "Ġstreet": 2004,
      "ee": 2005,
      "Ġwhole": 2006,
      "Ġargu": 2007,
      "Ġciv": 2008,
      "lu": 2009,
      "**": 2010,
      "reme": 2011,
      "Ġcompanies": 2012,
      "15": 2013,
      "Ġleague": 2014,
      "Ġdecision": 2015,
      "Ġissues": 2016,
      "Ġang": 2017,
      "Ġofficials": 2018,
      "Ġcompl": 2019,
      "tr": 2020,
      "off": 2021,
      "Ġstudents": 2022,
      "lier": 2023,
      "Ġmc": 2024,
      "Ġmatter": 2025,
      "Ġliber": 2026,
      "dle": 2027,
      "Ġboo": 2028,
      "aces": 2029,
      "Ġcred": 2030,
      "Ġmeas": 2031,
      "Ġwrote": 2032,
      "ows": 2033,
      "hy": 2034,
      "Ġdocu": 2035,
      "Ġgir": 2036,
      "Ġbuilding": 2037,
      "ault": 2038,
      "Ġeduc": 2039,
      "ov": 2040,
      "asing": 2041,
      "Ġ2013": 2042,
      "fer": 2043,
      "Ġoutside": 2044,
      "mb": 2045,
      "Ġanim": 2046,
      "Ġdest": 2047,
      "Ġposition": 2048,
      "Ġleaders": 2049,
      "attle": 2050,
      "Ġservices": 2051,
      "Ġreleased": 2052,
      "Ġdiv": 2053,
      "Ġrelease": 2054,
      "Ġrole": 2055,
      "Ġabove": 2056,
      "body": 2057,
      "Ġseems": 2058,
      "Ġhours": 2059,
      "Ġagree": 2060,
      "Ġcirc": 2061,
      "Ġneg": 2062,
      "Ġ198": 2063,
      "ites": 2064,
      "Ġtyp": 2065,
      "ively": 2066,
      "Ġstatement": 2067,
      "Ġground": 2068,
      "Ġchina": 2069,
      "Ġgerman": 2070,
      "Ġappe": 2071,
      "Ġdirector": 2072,
      "Ġcharacter": 2073,
      "like": 2074,
      "Ġdrug": 2075,
      "Ġdead": 2076,
      "itted": 2077,
      "pecially": 2078,
      "Ġinterview": 2079,
      "Ġthin": 2080,
      "Ġroad": 2081,
      "head": 2082,
      "Ġaddress": 2083,
      "Ġrob": 2084,
      "Ġphys": 2085,
      "Ġcongress": 2086,
      "Ġcy": 2087,
      "ana": 2088,
      "ully": 2089,
      "Ġpal": 2090,
      "Ġfriends": 2091,
      "atic": 2092,
      "Ġcode": 2093,
      "iday": 2094,
      "Ġgoo": 2095,
      "Ġfinanc": 2096,
      "Ġwoman": 2097,
      "Ġevidence": 2098,
      "Ġtwitter": 2099,
      "Ġbegan": 2100,
      "Ġsimply": 2101,
      "Ġreview": 2102,
      "Ġamount": 2103,
      "Ġmarch": 2104,
      "Ġversion": 2105,
      "uation": 2106,
      "Ġaud": 2107,
      "Ġscient": 2108,
      "aut": 2109,
      "Ġpack": 2110,
      "Ġprovide": 2111,
      "Ġgod": 2112,
      "Ġspecific": 2113,
      "ibility": 2114,
      "wor": 2115,
      "fl": 2116,
      "lement": 2117,
      "Ġhimself": 2118,
      "Ġ25": 2119,
      "Ġ2012": 2120,
      "Ġsto": 2121,
      "duct": 2122,
      "Ġbecame": 2123,
      "Ġ2017": 2124,
      "Ġrunning": 2125,
      "Ġcountries": 2126,
      "ob": 2127,
      "yle": 2128,
      "Ġben": 2129,
      "ma": 2130,
      "Ġonline": 2131,
      "Ġyes": 2132,
      "Ġitself": 2133,
      "Ġgreen": 2134,
      "Ġbenef": 2135,
      "ades": 2136,
      "Ġage": 2137,
      "Ġelection": 2138,
      "Ġenvironment": 2139,
      "Ġeconomic": 2140,
      "Ġabs": 2141,
      "Ġlate": 2142,
      "ender": 2143,
      "Ġcivil": 2144,
      "Ġsaw": 2145,
      "mon": 2146,
      "ham": 2147,
      "ott": 2148,
      "Ġclub": 2149,
      "Ġpain": 2150,
      "Ġmill": 2151,
      "Ġtalk": 2152,
      "Ġthemselves": 2153,
      "Ġlegal": 2154,
      "Ġpick": 2155,
      "Ġarticle": 2156,
      "Ġbase": 2157,
      "Ġindustry": 2158,
      "ficult": 2159,
      "Ġdespite": 2160,
      "Ġsignificant": 2161,
      "Ġearlier": 2162,
      "Ġobject": 2163,
      "Ġwasn": 2164,
      "Ġgroups": 2165,
      "Ġtotal": 2166,
      "Ġet": 2167,
      "ape": 2168,
      "Ġrespons": 2169,
      "lam": 2170,
      "Ġcheck": 2171,
      "Ġill": 2172,
      "'ll": 2173,
      "Ġtechnology": 2174,
      "Ġinj": 2175,
      "Ġtrack": 2176,
      "Ġlost": 2177,
      "Ġbank": 2178,
      "Ġdifficult": 2179,
      "use": 2180,
      "itch": 2181,
      "aced": 2182,
      "Ġexc": 2183,
      "elt": 2184,
      "Ġshows": 2185,
      "Ġcoll": 2186,
      "Ġminister": 2187,
      "Ġled": 2188,
      "Ġrecently": 2189,
      "ilt": 2190,
      "Ġpretty": 2191,
      "Ġ100": 2192,
      "lish": 2193,
      "iod": 2194,
      "Ġglobal": 2195,
      "Ġmov": 2196,
      "Ġsoon": 2197,
      "Ġrelig": 2198,
      "Ġespecially": 2199,
      "time": 2200,
      "Ġneeds": 2201,
      "Ġoct": 2202,
      "Ġsource": 2203,
      "Ġworks": 2204,
      "ager": 2205,
      "Ġconsum": 2206,
      "Ġquite": 2207,
      "ently": 2208,
      "Ġinclude": 2209,
      "Ġneeded": 2210,
      "Ġcapt": 2211,
      "Ġhor": 2212,
      "lim": 2213,
      "Ġnation": 2214,
      "Ġhill": 2215,
      "where": 2216,
      "Ġanti": 2217,
      "Ġexecut": 2218,
      "Ġplaying": 2219,
      "Ġcandid": 2220,
      "bl": 2221,
      "Ġphil": 2222,
      "Ġmur": 2223,
      "Ġsite": 2224,
      "Ġvalue": 2225,
      "Ġ)": 2226,
      "Ġhost": 2227,
      "Ġfacebook": 2228,
      "Ġaug": 2229,
      "Ġinstit": 2230,
      "Ġchanges": 2231,
      "angu": 2232,
      "fully": 2233,
      "Ġcomput": 2234,
      "oud": 2235,
      "ribut": 2236,
      "Ġsense": 2237,
      "Ġshoot": 2238,
      "Ġsuff": 2239,
      "ung": 2240,
      "Ġexpress": 2241,
      "Ġver": 2242,
      "Ġperiod": 2243,
      "Ġwall": 2244,
      "Ġanyone": 2245,
      "Ġmich": 2246,
      "Ġbud": 2247,
      "16": 2248,
      "Ġwebs": 2249,
      "Ġbillion": 2250,
      "Ġri": 2251,
      "Ġpred": 2252,
      "key": 2253,
      "Ġbroad": 2254,
      "Ġapplic": 2255,
      "Ġplayed": 2256,
      "Ġaccept": 2257,
      "iding": 2258,
      "Ġjourn": 2259,
      "cil": 2260,
      "Ġblock": 2261,
      "Ġdecl": 2262,
      "Ġ50": 2263,
      "Ġmi": 2264,
      "Ġforeign": 2265,
      "Ġforward": 2266,
      "Ġpie": 2267,
      "Ġwed": 2268,
      "ser": 2269,
      "Ġran": 2270,
      "Ġvote": 2271,
      "Ġprice": 2272,
      "hod": 2273,
      "Ġpark": 2274,
      "Ġgoogle": 2275,
      "____": 2276,
      "Ġsqu": 2277,
      "Ġbor": 2278,
      "Ġopportun": 2279,
      "Ġfocus": 2280,
      "ival": 2281,
      "Ġresults": 2282,
      "this": 2283,
      "Ġmoder": 2284,
      "Ġstay": 2285,
      "Ġlog": 2286,
      "Ġ<": 2287,
      "Ġprim": 2288,
      "ÂŃ": 2289,
      "Ġsil": 2290,
      "Ġsept": 2291,
      "Ġbal": 2292,
      "ners": 2293,
      "Ġq": 2294,
      "Ġgold": 2295,
      "Ġdig": 2296,
      "ried": 2297,
      "Ġstaff": 2298,
      "Ġmoment": 2299,
      "Ġspeak": 2300,
      "ging": 2301,
      "Ġmis": 2302,
      "istic": 2303,
      "Ġsold": 2304,
      "ached": 2305,
      "Ġdeter": 2306,
      "Ġparent": 2307,
      "14": 2308,
      "rodu": 2309,
      "Ġcomment": 2310,
      "Ġgoal": 2311,
      "Ġhigher": 2312,
      "Ġweeks": 2313,
      "gn": 2314,
      "Ġfunction": 2315,
      "Ġemail": 2316,
      "Ġsoft": 2317,
      "Ġten": 2318,
      "medi": 2319,
      "Ġboard": 2320,
      "13": 2321,
      "Ġlonger": 2322,
      "Ġwrong": 2323,
      "Ġwords": 2324,
      "Ġheart": 2325,
      "Ġpersonal": 2326,
      "Ġreve": 2327,
      "Ġmodel": 2328,
      "Ġ24": 2329,
      "Ġmiddle": 2330,
      "Ġaw": 2331,
      "Ġcit": 2332,
      "Ġpotential": 2333,
      "Ġjournal": 2334,
      "Ġtele": 2335,
      "Ġdeep": 2336,
      "bor": 2337,
      "Ġrich": 2338,
      "Ġpopular": 2339,
      "Ġrepublican": 2340,
      "ift": 2341,
      "ns": 2342,
      "lled": 2343,
      "ery": 2344,
      "Ġcontract": 2345,
      "Ġconserv": 2346,
      "Ġterror": 2347,
      "epend": 2348,
      "str": 2349,
      "ze": 2350,
      "kn": 2351,
      "Ġansw": 2352,
      "Ġchief": 2353,
      "Ġnetwork": 2354,
      "Ġadministration": 2355,
      "Ġscience": 2356,
      "Ġtype": 2357,
      "itting": 2358,
      "cle": 2359,
      "Ġheld": 2360,
      "Ġapr": 2361,
      "Ġcapital": 2362,
      "Ġking": 2363,
      "Ġjune": 2364,
      "Ġtown": 2365,
      "load": 2366,
      "Ġmal": 2367,
      "Ġ{": 2368,
      "Ġcard": 2369,
      "onse": 2370,
      "ript": 2371,
      "Ġshot": 2372,
      "Ġ*": 2373,
      "Ġstru": 2374,
      "Ġmater": 2375,
      "Ġpict": 2376,
      "Ġhon": 2377,
      "right": 2378,
      "ote": 2379,
      "Ġrate": 2380,
      "Ġminutes": 2381,
      "Ġinside": 2382,
      "Ġoriginal": 2383,
      "Ġprivate": 2384,
      "Ġsand": 2385,
      "mal": 2386,
      "Ġsyri": 2387,
      "Ġrock": 2388,
      "Ġfinancial": 2389,
      "Ġmother": 2390,
      "ients": 2391,
      "Ġengine": 2392,
      "Ġbuy": 2393,
      "rie": 2394,
      "Ġnearly": 2395,
      "Ġhot": 2396,
      "Ġcontent": 2397,
      "Ġheav": 2398,
      "Ġoil": 2399,
      "Ġproblems": 2400,
      "Ġimpact": 2401,
      "Ġliving": 2402,
      "Ġlangu": 2403,
      "Ġ+": 2404,
      "Ġfamil": 2405,
      "Ġfavor": 2406,
      "Ġru": 2407,
      "Ġaustral": 2408,
      "you": 2409,
      "Ġul": 2410,
      "Ġsurpr": 2411,
      "ctor": 2412,
      "oid": 2413,
      "Ġstrateg": 2414,
      "Ġchur": 2415,
      "Ġcreated": 2416,
      "ston": 2417,
      "Ġut": 2418,
      "Ġlos": 2419,
      "Ġways": 2420,
      "Ġeasy": 2421,
      "Ġinternet": 2422,
      "uary": 2423,
      "ew": 2424,
      "Ġincrease": 2425,
      "Ġfair": 2426,
      "Ġcoup": 2427,
      "Ġrisk": 2428,
      "Ġquestions": 2429,
      "Ġchance": 2430,
      "ilities": 2431,
      "do": 2432,
      "Ġjuly": 2433,
      "17": 2434,
      "Ġrespect": 2435,
      "Ġleave": 2436,
      "umb": 2437,
      "Ġrac": 2438,
      "Ġ2011": 2439,
      "aging": 2440,
      "Ġtou": 2441,
      "Ġnecess": 2442,
      "Ġusers": 2443,
      "anger": 2444,
      "Ġreceived": 2445,
      "haps": 2446,
      "Ġaverage": 2447,
      "Ġber": 2448,
      "Ġcollect": 2449,
      "gth": 2450,
      "ij": 2451,
      "Ġcommitte": 2452,
      "18": 2453,
      "Ġ197": 2454,
      "Ġchamp": 2455,
      "Ġreports": 2456,
      "Ġexpected": 2457,
      "Ġphone": 2458,
      "Ġadm": 2459,
      "lex": 2460,
      "Ġ@": 2461,
      "Ġsubject": 2462,
      "val": 2463,
      "Ġexact": 2464,
      "ask": 2465,
      "rew": 2466,
      "Ġcurrently": 2467,
      "==": 2468,
      "Ġcannot": 2469,
      "action": 2470,
      "fect": 2471,
      "Ġsociety": 2472,
      "ored": 2473,
      "Ġpage": 2474,
      "Ġregard": 2475,
      "Ġtrade": 2476,
      "uel": 2477,
      "Ġannounced": 2478,
      "Ġren": 2479,
      "bi": 2480,
      "Ġbat": 2481,
      "Ġfriday": 2482,
      "Ġrom": 2483,
      "ny": 2484,
      "Ġdisco": 2485,
      "Ġearth": 2486,
      "ires": 2487,
      "Ġfem": 2488,
      "Ġoppos": 2489,
      "Ġeast": 2490,
      "apan": 2491,
      "Ġmember": 2492,
      "Ġworkers": 2493,
      "ray": 2494,
      "arter": 2495,
      "ode": 2496,
      "Ġresponse": 2497,
      "bc": 2498,
      "Ġpers": 2499,
      "Ġfans": 2500,
      "Ġadvertise": 2501,
      "Ġfather": 2502,
      "hood": 2503,
      "Ġmethod": 2504,
      "Ġinvolved": 2505,
      "Ġpan": 2506,
      "isl": 2507,
      "Ġapril": 2508,
      "Ġpublished": 2509,
      "Ġcollege": 2510,
      "ples": 2511,
      "Ġmicro": 2512,
      "Ġworth": 2513,
      "Ġmedical": 2514,
      "iple": 2515,
      "Ġrelationship": 2516,
      "llig": 2517,
      "25": 2518,
      "Ġdefense": 2519,
      "Ġfriend": 2520,
      "Ġword": 2521,
      "Ġrequest": 2522,
      "Ġestab": 2523,
      "Ġnote": 2524,
      "Ġround": 2525,
      "cast": 2526,
      "oke": 2527,
      "Ġimmedi": 2528,
      "ude": 2529,
      "itten": 2530,
      "Ġcentral": 2531,
      "hern": 2532,
      "bert": 2533,
      "Ġkilled": 2534,
      "Ġindepend": 2535,
      "Ġcounty": 2536,
      "Ġphoto": 2537,
      "Ġdavid": 2538,
      "Ġweap": 2539,
      "mer": 2540,
      "Ġfinally": 2541,
      "bit": 2542,
      "Ġson": 2543,
      "Ġarrest": 2544,
      "Ġrespond": 2545,
      "Ġlives": 2546,
      "Ġtext": 2547,
      "Ġperhaps": 2548,
      "Ġcases": 2549,
      "Ġdefin": 2550,
      "verse": 2551,
      "Ġtool": 2552,
      "ogn": 2553,
      "Ġcross": 2554,
      "Ġamericans": 2555,
      "vered": 2556,
      "Ġmaterial": 2557,
      "Ġlink": 2558,
      "Ġmonday": 2559,
      "light": 2560,
      "Ġbecom": 2561,
      "there": 2562,
      "Ġtues": 2563,
      "atives": 2564,
      "Ġterms": 2565,
      "Ġworked": 2566,
      "Ġrussia": 2567,
      "Ġgeor": 2568,
      "Ġmaybe": 2569,
      "Ġtakes": 2570,
      "Ġability": 2571,
      "Ġspok": 2572,
      "put": 2573,
      "Ġcontact": 2574,
      "Ġlin": 2575,
      "asc": 2576,
      "Ġdece": 2577,
      "Ġparticip": 2578,
      "Ġjapan": 2579,
      "Ġmach": 2580,
      "lly": 2581,
      "Ġpaul": 2582,
      "Ġrace": 2583,
      "ises": 2584,
      "lin": 2585,
      "omm": 2586,
      "Ġtuesday": 2587,
      "reg": 2588,
      "Ġleader": 2589,
      "Ġ2010": 2590,
      "ream": 2591,
      "Ġlegisl": 2592,
      "60": 2593,
      "Ġcouncil": 2594,
      "but": 2595,
      "unt": 2596,
      "Ġunion": 2597,
      "Ġcalif": 2598,
      "Ġlack": 2599,
      "Ġcommittee": 2600,
      "Ġnove": 2601,
      "izing": 2602,
      "Ġintrodu": 2603,
      "Ġvisit": 2604,
      "ha": 2605,
      "Ġjustice": 2606,
      "Ġinflu": 2607,
      "Ġperformance": 2608,
      "Ġgave": 2609,
      "Ġteams": 2610,
      "Ġcorre": 2611,
      "Ġfeb": 2612,
      "Ġrequire": 2613,
      "Ġmeeting": 2614,
      "Ġsimple": 2615,
      "Ġcast": 2616,
      "Ġweb": 2617,
      "pa": 2618,
      "Ġtravel": 2619,
      "Ġsometimes": 2620,
      "ese": 2621,
      "!!": 2622,
      "Ġdecided": 2623,
      "Ġhappened": 2624,
      "Ġvia": 2625,
      "based": 2626,
      "Ġconfir": 2627,
      "ees": 2628,
      "Ġcamer": 2629,
      "Ġjanuary": 2630,
      "Ġbir": 2631,
      "Ġ40": 2632,
      "Ġbox": 2633,
      "Ġsong": 2634,
      "Ġwebsite": 2635,
      "ological": 2636,
      "Ġforces": 2637,
      "Ġunf": 2638,
      "Ġenj": 2639,
      "Ġtor": 2640,
      "Ġarri": 2641,
      "\".": 2642,
      "Ġprogress": 2643,
      "Ġseptember": 2644,
      "Ġislam": 2645,
      "Ġgoes": 2646,
      "Ġtro": 2647,
      "Ġplans": 2648,
      "Ġmatch": 2649,
      "Ġaffect": 2650,
      "Ġlower": 2651,
      "ops": 2652,
      "Ġevents": 2653,
      "Ġchurch": 2654,
      "Ġnovember": 2655,
      "Ġindic": 2656,
      "set": 2657,
      "uth": 2658,
      "Ġthous": 2659,
      "Ġhuge": 2660,
      "Ġwhose": 2661,
      "ino": 2662,
      "Ġdeli": 2663,
      "Ġoffer": 2664,
      "Ġcareer": 2665,
      "Ġmorning": 2666,
      "Ġeducation": 2667,
      "Ġimprove": 2668,
      "Ġveh": 2669,
      "Ġcolor": 2670,
      "usion": 2671,
      "Ġrepe": 2672,
      "Ġcover": 2673,
      "Ġsituation": 2674,
      "xic": 2675,
      "sp": 2676,
      "Ġcitiz": 2677,
      "Ġtradition": 2678,
      "Ġrecogn": 2679,
      "Ġamaz": 2680,
      "Ġvictim": 2681,
      "ael": 2682,
      "ober": 2683,
      "Ġagency": 2684,
      "Ġfear": 2685,
      "Ġneigh": 2686,
      "Ġtv": 2687,
      "Ġintellig": 2688,
      "Ġess": 2689,
      "Ġeconomy": 2690,
      "orm": 2691,
      "Ġask": 2692,
      "Ġproduction": 2693,
      "Ġ21": 2694,
      "Ġclos": 2695,
      "Ġsett": 2696,
      "Ġturned": 2697,
      "Ġbehav": 2698,
      "Ġloss": 2699,
      "Ġareas": 2700,
      "Ġmovement": 2701,
      "Ġwide": 2702,
      "Ġpull": 2703,
      "Ġmer": 2704,
      "Ġthurs": 2705,
      "Ġapproach": 2706,
      "gen": 2707,
      "Ġplease": 2708,
      "Ġdark": 2709,
      "ruction": 2710,
      "omb": 2711,
      "what": 2712,
      "Ġeuropean": 2713,
      "Ġcommission": 2714,
      "Ġarm": 2715,
      "Ġaugust": 2716,
      "Ġfelt": 2717,
      "face": 2718,
      "Ġwednes": 2719,
      "Ġuser": 2720,
      "Ġfast": 2721,
      "Ġimages": 2722,
      "ctions": 2723,
      "Ġbuilt": 2724,
      "ips": 2725,
      "Ġtim": 2726,
      "Ġmanage": 2727,
      "Ġdemocratic": 2728,
      "Ġspeed": 2729,
      "force": 2730,
      "oring": 2731,
      "Ġcanada": 2732,
      "Ġafric": 2733,
      "Ġhosp": 2734,
      "iment": 2735,
      "Ġ22": 2736,
      "Ġthursday": 2737,
      "Ġarch": 2738,
      "Ġcouple": 2739,
      "Ġfix": 2740,
      "Ġgrand": 2741,
      "Ġwednesday": 2742,
      "][": 2743,
      "Ġjack": 2744,
      "Ġprevious": 2745,
      "Ġsearch": 2746,
      "Ġquickly": 2747,
      "Ġconstit": 2748,
      "Ġdistrict": 2749,
      "Ġnumbers": 2750,
      "fr": 2751,
      "Ġsepar": 2752,
      "ker": 2753,
      "ky": 2754,
      "Ġstruct": 2755,
      "aled": 2756,
      "Ġheard": 2757,
      "Ġfa": 2758,
      "ws": 2759,
      "Ġemerg": 2760,
      "Ġleav": 2761,
      "Ġcoach": 2762,
      "down": 2763,
      "Ġsize": 2764,
      "Ġult": 2765,
      "Ġexam": 2766,
      "Ġcaliforn": 2767,
      "net": 2768,
      "ety": 2769,
      "ume": 2770,
      "Ġoctober": 2771,
      "Ġperfect": 2772,
      "Ġtraining": 2773,
      "Ġsurve": 2774,
      "Ġsunday": 2775,
      "Ġcause": 2776,
      "'d": 2777,
      "Ġupon": 2778,
      "atory": 2779,
      "Ġrules": 2780,
      "Ġspent": 2781,
      "Ġgrowth": 2782,
      "ening": 2783,
      "Ġpopulation": 2784,
      "\",": 2785,
      "Ġsystems": 2786,
      "Ġincluded": 2787,
      "Ġbritish": 2788,
      "Ġplat": 2789,
      "Ġgets": 2790,
      "Ġcru": 2791,
      "ãģ": 2792,
      "Ġtable": 2793,
      "rown": 2794,
      "Ġlearn": 2795,
      "Ġcat": 2796,
      "Ġprem": 2797,
      "Ġenjoy": 2798,
      "Ġcommunic": 2799,
      "Ġfootball": 2800,
      "Ġmodern": 2801,
      "Ġblood": 2802,
      "Ġresident": 2803,
      "Ġhands": 2804,
      "mp": 2805,
      "Ġprior": 2806,
      "Ġsaf": 2807,
      "Ġach": 2808,
      "Ġvarious": 2809,
      "Ġwants": 2810,
      "Ġque": 2811,
      "Ġtried": 2812,
      "Ġham": 2813,
      "Ġhur": 2814,
      "iction": 2815,
      "Ġcrim": 2816,
      "Ġsam": 2817,
      "Ġreach": 2818,
      "Ġclimate": 2819,
      "istan": 2820,
      "Ġbattle": 2821,
      "over": 2822,
      "Ġobv": 2823,
      "Ġsens": 2824,
      "Ġknew": 2825,
      "Ġgar": 2826,
      "Ġattention": 2827,
      "Ġlooks": 2828,
      "Ġresour": 2829,
      "Ġmob": 2830,
      "Ġcalifornia": 2831,
      "Ġfeatures": 2832,
      "Ġsatur": 2833,
      "hold": 2834,
      "Ġdemon": 2835,
      "Ġcorpor": 2836,
      "Ġ}": 2837,
      "Ġseven": 2838,
      "uses": 2839,
      "Ġye": 2840,
      "ground": 2841,
      "Ġnatural": 2842,
      "Ġtom": 2843,
      "?âĢĿ": 2844,
      "Ġallowed": 2845,
      "Ġdemand": 2846,
      "estern": 2847,
      "Ġ23": 2848,
      "Ġkore": 2849,
      "Ġtour": 2850,
      "Ġâ": 2851,
      "Ġpaper": 2852,
      "rain": 2853,
      "Ġdecember": 2854,
      "Ġregular": 2855,
      "ishing": 2856,
      "Ġrelated": 2857,
      "Ġcommand": 2858,
      "Ġinvestigation": 2859,
      "Ġeight": 2860,
      "orters": 2861,
      "Ġlanguage": 2862,
      "ceed": 2863,
      "rem": 2864,
      "âĢĿ.": 2865,
      "Ġjobs": 2866,
      "Ġslow": 2867,
      ");": 2868,
      "Ġadvertisement": 2869,
      "Ġpurp": 2870,
      "chers": 2871,
      "Ġguy": 2872,
      "aming": 2873,
      "Ġimmig": 2874,
      "Ġgra": 2875,
      "Ġrussian": 2876,
      "oph": 2877,
      "Ġhear": 2878,
      "Ġhistor": 2879,
      "Ġbrought": 2880,
      "Ġbey": 2881,
      "Ġmention": 2882,
      "40": 2883,
      "Ġens": 2884,
      "iff": 2885,
      "Ġconference": 2886,
      "Ġdoll": 2887,
      "Ġstore": 2888,
      "field": 2889,
      "sequ": 2890,
      "Ġtalking": 2891,
      "Ġprotest": 2892,
      "Ġlatest": 2893,
      "ibly": 2894,
      "Ġfigure": 2895,
      "Ġflo": 2896,
      "hel": 2897,
      "Ġinteresting": 2898,
      "Ġisland": 2899,
      "bed": 2900,
      "Ġsafe": 2901,
      "Ġstandard": 2902,
      "Ġwritten": 2903,
      "arily": 2904,
      "Ġ>": 2905,
      "Ġsummer": 2906,
      "Ġil": 2907,
      "Ġbott": 2908,
      "Ġanalys": 2909,
      "Ġsenate": 2910,
      "idered": 2911,
      "bt": 2912,
      "Ġdraw": 2913,
      "Ġgas": 2914,
      "Ġconc": 2915,
      "Ġdaily": 2916,
      "Ġmount": 2917,
      "ban": 2918,
      "Ġassist": 2919,
      "Ġpsy": 2920,
      "Ġremember": 2921,
      "Ġconduct": 2922,
      "Ġsurv": 2923,
      "Ġdocument": 2924,
      "that": 2925,
      "undred": 2926,
      "Ġhol": 2927,
      "Ġexcept": 2928,
      "Ġmajority": 2929,
      "Ġira": 2930,
      "Ġofficers": 2931,
      "Ġmovie": 2932,
      "Ġparents": 2933,
      "Ġalle": 2934,
      "ech": 2935,
      "xim": 2936,
      "Ġskill": 2937,
      "ened": 2938,
      "ession": 2939,
      "Ġpath": 2940,
      "Ġresear": 2941,
      "Ġcopy": 2942,
      "Ġwat": 2943,
      "Ġdog": 2944,
      "Ġprep": 2945,
      "Ġok": 2946,
      "Ġconsidered": 2947,
      "Ġstrugg": 2948,
      "Ġofficer": 2949,
      "Ġsexual": 2950,
      "Ġsort": 2951,
      "Ġcritic": 2952,
      "Ġlay": 2953,
      "sa": 2954,
      "Ġrange": 2955,
      "....": 2956,
      "Ġachie": 2957,
      "Ġhous": 2958,
      "come": 2959,
      "pper": 2960,
      "Ġprison": 2961,
      "ondon": 2962,
      "Ġextreme": 2963,
      "Ġinstall": 2964,
      "Ġviolence": 2965,
      "Ġregul": 2966,
      "Ġindia": 2967,
      "Ġstarting": 2968,
      "Ġstories": 2969,
      "Ġselect": 2970,
      "Ġbeyond": 2971,
      "Ġdetails": 2972,
      "Ġmart": 2973,
      "Ġlevels": 2974,
      "gers": 2975,
      "Ġrap": 2976,
      "Ġnar": 2977,
      "Ġextra": 2978,
      "Ġincreasing": 2979,
      "Ġcredit": 2980,
      "Ġreading": 2981,
      "Ġhundred": 2982,
      "Ġiran": 2983,
      "Ġdonald": 2984,
      "Ġwild": 2985,
      "Ġmedic": 2986,
      "Ġ2009": 2987,
      "Ġprevent": 2988,
      "iation": 2989,
      "Ġboy": 2990,
      "Ġblue": 2991,
      "Ġblog": 2992,
      "ucle": 2993,
      "Ġmessage": 2994,
      "Ġserious": 2995,
      "Ġtex": 2996,
      "Ġimag": 2997,
      "Ġfreed": 2998,
      "Ġwriting": 2999,
      "cies": 3000,
      "aries": 3001,
      "tt": 3002,
      "idge": 3003,
      "Ġanswer": 3004,
      "Ġbrown": 3005,
      "Ġfile": 3006,
      "Ġsoftware": 3007,
      "Ġrout": 3008,
      "rit": 3009,
      "ken": 3010,
      "Ġspokes": 3011,
      "Ġ2008": 3012,
      "Ġcertainly": 3013,
      "ruary": 3014,
      "Ġcontinued": 3015,
      "Ġarmy": 3016,
      "Ġmuslim": 3017,
      "Ġopportunity": 3018,
      "aph": 3019,
      "kes": 3020,
      "Ġcomments": 3021,
      "Ġfill": 3022,
      "Ġdro": 3023,
      "ledge": 3024,
      "99": 3025,
      "Ġhall": 3026,
      "icles": 3027,
      "Ġattacks": 3028,
      "Ġdamage": 3029,
      "Ġaren": 3030,
      "Ġincident": 3031,
      "Ġband": 3032,
      "Ġcup": 3033,
      "Ġtrust": 3034,
      "Ġsle": 3035,
      "Ġsaturday": 3036,
      "Ġbudget": 3037,
      "Ġment": 3038,
      "Ġlondon": 3039,
      "Ġquality": 3040,
      "Ġquarter": 3041,
      "Ġproducts": 3042,
      "ille": 3043,
      "Ġpractice": 3044,
      "Ġdrive": 3045,
      "Ġexactly": 3046,
      "Ġbrother": 3047,
      "coin": 3048,
      "Ġiraq": 3049,
      "Ġclaims": 3050,
      "ification": 3051,
      "Ġeffort": 3052,
      "Ġexecutive": 3053,
      "Ġregion": 3054,
      "Ġapple": 3055,
      "Ġcompletely": 3056,
      "iant": 3057,
      "Ġparticularly": 3058,
      "Ġdate": 3059,
      "Ġspot": 3060,
      "Ġdan": 3061,
      "Ġsafety": 3062,
      "Ġmichael": 3063,
      "Ġintelligence": 3064,
      "Ġcrow": 3065,
      "Ġkids": 3066,
      "they": 3067,
      "fact": 3068,
      "ida": 3069,
      "Ġnature": 3070,
      "Ġadditional": 3071,
      "Ġjoin": 3072,
      "Ġfebruary": 3073,
      "Ġsyn": 3074,
      "Ġmac": 3075,
      "Ġbiggest": 3076,
      "Ġbra": 3077,
      "Ġjer": 3078,
      "Ġepis": 3079,
      "Ġrequired": 3080,
      "bar": 3081,
      "Ġitem": 3082,
      "Ġdisp": 3083,
      "eed": 3084,
      "ension": 3085,
      "Ġsche": 3086,
      "Ġpoor": 3087,
      "Ġcarry": 3088,
      "Ġconvers": 3089,
      "Ġculture": 3090,
      "Ġchoo": 3091,
      "Ġthroughout": 3092,
      "Ġdie": 3093,
      "Ġstuff": 3094,
      "Ġusually": 3095,
      "Ġleading": 3096,
      "Ġexperien": 3097,
      "Ġjames": 3098,
      "Ġorganization": 3099,
      "rences": 3100,
      "Ġgiving": 3101,
      "Ġcontr": 3102,
      "Ġmultiple": 3103,
      "room": 3104,
      "just": 3105,
      "Ġfly": 3106,
      "Ġdanger": 3107,
      "Ġstudent": 3108,
      "Ġ27": 3109,
      "inese": 3110,
      "iers": 3111,
      "Ġpaid": 3112,
      "ograph": 3113,
      "Ġchanged": 3114,
      "Ġattor": 3115,
      "Ġcele": 3116,
      "Ġjudge": 3117,
      "rench": 3118,
      "Ġwrite": 3119,
      "Ġready": 3120,
      "200": 3121,
      "Ġprime": 3122,
      "Ġid": 3123,
      "Ġclean": 3124,
      "Ġcrime": 3125,
      "Ġcomputer": 3126,
      "Ġterm": 3127,
      "Ġrepublicans": 3128,
      "Ġnucle": 3129,
      "Ġnamed": 3130,
      "Ġmad": 3131,
      "Ġcentury": 3132,
      "Ġcosts": 3133,
      "Ġchair": 3134,
      "Ġremain": 3135,
      "Ġguard": 3136,
      "Ġthinking": 3137,
      "Ġlooked": 3138,
      "aught": 3139,
      "rend": 3140,
      "ences": 3141,
      "Ġgrowing": 3142,
      "Ġtitle": 3143,
      "Ġswe": 3144,
      "Ġstage": 3145,
      "Ġdescribed": 3146,
      "Ġwonder": 3147,
      "Ġsmart": 3148,
      "Ġreality": 3149,
      "Ġbooks": 3150,
      "Ġcris": 3151,
      "Ġones": 3152,
      "ously": 3153,
      "entially": 3154,
      "ago": 3155,
      "Ġeffects": 3156,
      "Ġstra": 3157,
      "rel": 3158,
      "zz": 3159,
      "Ġcomplex": 3160,
      "Ġ28": 3161,
      "Ġparts": 3162,
      "oper": 3163,
      "Ġtwe": 3164,
      "Ġprovided": 3165,
      "Ġpurch": 3166,
      "Ġwilli": 3167,
      "Ġimplement": 3168,
      "hib": 3169,
      "Ġorigin": 3170,
      "Ġoccur": 3171,
      "Ġeventually": 3172,
      "Ġlaws": 3173,
      "Ġvill": 3174,
      "Ġnom": 3175,
      "Ġprinc": 3176,
      "Ġcelebr": 3177,
      "Ġbrand": 3178,
      "anced": 3179,
      "Ġincreased": 3180,
      "Ġthus": 3181,
      "Ġshowed": 3182,
      "Ġoverall": 3183,
      "Ġeth": 3184,
      "isions": 3185,
      "Ġplatform": 3186,
      "Ġchoice": 3187,
      "Ġcounter": 3188,
      "mar": 3189,
      "ba": 3190,
      "Ġhospital": 3191,
      "Ġpsych": 3192,
      "Ġcalls": 3193,
      "Ġscreen": 3194,
      "Ġwestern": 3195,
      "Ġpoll": 3196,
      "het": 3197,
      "Ġmix": 3198,
      "Ġrecomm": 3199,
      "Ġbab": 3200,
      "Ġvoters": 3201,
      "phone": 3202,
      "hers": 3203,
      "Ġoh": 3204,
      "Ġremains": 3205,
      "fort": 3206,
      "Ġpun": 3207,
      "Ġbrain": 3208,
      "Ġmaintain": 3209,
      "Ġchinese": 3210,
      "Ġwouldn": 3211,
      "Ġletter": 3212,
      "Ġpow": 3213,
      "Ġoption": 3214,
      "Ġfreedom": 3215,
      "Ġefforts": 3216,
      "Ġfal": 3217,
      "Ġfan": 3218,
      "aker": 3219,
      "Ġhappy": 3220,
      "Ġconcept": 3221,
      "Ġguys": 3222,
      "ffic": 3223,
      "Ġ26": 3224,
      "Ġdied": 3225,
      "bur": 3226,
      "Ġspeech": 3227,
      "Ġimmediately": 3228,
      "Ġthanks": 3229,
      "Ġsenior": 3230,
      "ford": 3231,
      "ipe": 3232,
      "Ġconsist": 3233,
      "Ġspir": 3234,
      "Ġder": 3235,
      "ux": 3236,
      "ables": 3237,
      "Ġdirectly": 3238,
      "Ġtowards": 3239,
      "Ġopin": 3240,
      "Ġfit": 3241,
      "Ġbow": 3242,
      "Ġthousands": 3243,
      "Ġpropos": 3244,
      "Ġanalysis": 3245,
      "Ġalone": 3246,
      "inary": 3247,
      "utions": 3248,
      "Ġcool": 3249,
      "akers": 3250,
      "Ġaltern": 3251,
      "22": 3252,
      "pir": 3253,
      "ris": 3254,
      "Ġdesigned": 3255,
      "Ġincludes": 3256,
      "Ġstudies": 3257,
      "Ġcry": 3258,
      "Ġdraft": 3259,
      "Ġlaunch": 3260,
      "icks": 3261,
      "Ġlabor": 3262,
      "Ġgone": 3263,
      "Ġwife": 3264,
      "Ġcouldn": 3265,
      "Ġindian": 3266,
      "more": 3267,
      "Ġtouch": 3268,
      "Ġpeace": 3269,
      "Ġpresidential": 3270,
      "Ġsports": 3271,
      "Ġmanager": 3272,
      "Ġreb": 3273,
      "Ġautom": 3274,
      "Ġcitizens": 3275,
      "Ġscene": 3276,
      "Ġtexas": 3277,
      "Ġproperty": 3278,
      "round": 3279,
      "Ġpolitics": 3280,
      "omp": 3281,
      "using": 3282,
      "Ġlimited": 3283,
      "Ġperm": 3284,
      "Ġnuclear": 3285,
      "Ġsecretary": 3286,
      "Ġdebate": 3287,
      "Ġmoving": 3288,
      "aur": 3289,
      "Ġreform": 3290,
      "arent": 3291,
      "Ġphotos": 3292,
      "Ġnav": 3293,
      "Ġpressure": 3294,
      "Ġprec": 3295,
      "Ġalb": 3296,
      "ga": 3297,
      "Ġanaly": 3298,
      "Ġlen": 3299,
      "Ġschools": 3300,
      "Ġdemocrats": 3301,
      "new": 3302,
      "Ġbeginning": 3303,
      "Ġtoward": 3304,
      "uk": 3305,
      "chan": 3306,
      "Ġpiece": 3307,
      "Ġhero": 3308,
      "Ġahead": 3309,
      "Ġarg": 3310,
      "Ġsuspect": 3311,
      "Ġmoved": 3312,
      "wise": 3313,
      "Ġ60": 3314,
      "Ġmeaning": 3315,
      "Ġrelative": 3316,
      "craft": 3317,
      "Ġprint": 3318,
      "Ġsubst": 3319,
      "how": 3320,
      "ii": 3321,
      "Ġdevice": 3322,
      "Ġdisapp": 3323,
      "Ġtruth": 3324,
      "Ġexch": 3325,
      "Ġcontribut": 3326,
      "Ġic": 3327,
      "##": 3328,
      "Ġeyes": 3329,
      "ĠÃ": 3330,
      "arian": 3331,
      "la": 3332,
      "24": 3333,
      "Ġpassed": 3334,
      "Ġgrad": 3335,
      "Ġupdate": 3336,
      "Ġapart": 3337,
      "Ġstation": 3338,
      "Ġfeed": 3339,
      "Ġconditions": 3340,
      "atever": 3341,
      "Ġesc": 3342,
      "wood": 3343,
      "Ġstren": 3344,
      "apt": 3345,
      "see": 3346,
      "Ġreceive": 3347,
      "Ġ(@": 3348,
      "Ġcharacters": 3349,
      "?\"": 3350,
      "zy": 3351,
      "Ġreligious": 3352,
      "while": 3353,
      "Ġenter": 3354,
      "Ġestim": 3355,
      "Ġwood": 3356,
      "icated": 3357,
      "dered": 3358,
      "Ġaim": 3359,
      "ller": 3360,
      "Ġcompared": 3361,
      "Ġapparent": 3362,
      "ĠÂ£": 3363,
      "Ġsup": 3364,
      "80": 3365,
      "Ġincome": 3366,
      "ev": 3367,
      "aches": 3368,
      "Ġlic": 3369,
      "Ġprose": 3370,
      "Ġdrop": 3371,
      "Ġdise": 3372,
      "berg": 3373,
      "hest": 3374,
      "rupt": 3375,
      "ari": 3376,
      "Ġbitcoin": 3377,
      "Ġcriminal": 3378,
      "Ġfrench": 3379,
      "men": 3380,
      "astic": 3381,
      "Ġreasons": 3382,
      "iders": 3383,
      "iny": 3384,
      "agon": 3385,
      "well": 3386,
      "ties": 3387,
      "Ġbeaut": 3388,
      "Ġdigital": 3389,
      "Ġrefer": 3390,
      "Ġchallenge": 3391,
      "Ġdeg": 3392,
      "Ġbeat": 3393,
      "Ġencour": 3394,
      "Ġsave": 3395,
      "adem": 3396,
      "Ġspending": 3397,
      "Ġminor": 3398,
      "Ġvoice": 3399,
      "Ġdifference": 3400,
      "box": 3401,
      "enty": 3402,
      "Ġradio": 3403,
      "Ġangel": 3404,
      "Ġcoal": 3405,
      "Ġnice": 3406,
      "Ġchampions": 3407,
      "Ġrule": 3408,
      "Ġmyself": 3409,
      "ram": 3410,
      "Ġcandidate": 3411,
      "ression": 3412,
      "Ġpositive": 3413,
      "Ġhelped": 3414,
      "Ġresearchers": 3415,
      "anch": 3416,
      "Ġcrisis": 3417,
      "Ġfailed": 3418,
      "Ġfrequ": 3419,
      "Ġappears": 3420,
      "Ġalleged": 3421,
      "Ġunlike": 3422,
      "Ġenglish": 3423,
      "Ġphysical": 3424,
      "olute": 3425,
      "Ġice": 3426,
      "Ġmist": 3427,
      "Ġfamilies": 3428,
      "Ġresources": 3429,
      "Ġnort": 3430,
      "Ġactions": 3431,
      "Ġlif": 3432,
      "Ġdisplay": 3433,
      "Ġhen": 3434,
      "Ġrub": 3435,
      "Ġ196": 3436,
      "Ġcore": 3437,
      "imin": 3438,
      "ox": 3439,
      "Ġthrow": 3440,
      "ipp": 3441,
      "dr": 3442,
      "Ġclearly": 3443,
      "Ġlargest": 3444,
      "Ġassociated": 3445,
      "Ġshown": 3446,
      "Ġsales": 3447,
      "aughter": 3448,
      "Ġsection": 3449,
      "Ġfeature": 3450,
      "Ġtreatment": 3451,
      "Ġgreater": 3452,
      "Ġconservative": 3453,
      "Ġdestro": 3454,
      "vision": 3455,
      "Ġpowerful": 3456,
      "Ġavoid": 3457,
      "Ġcharge": 3458,
      "Ġfat": 3459,
      "Ġgermany": 3460,
      "rief": 3461,
      "Ġpromot": 3462,
      "Ġposted": 3463,
      "23": 3464,
      "Ġlaun": 3465,
      "Ġwhatever": 3466,
      "Ġaustralia": 3467,
      "Ġvirt": 3468,
      "Ġ29": 3469,
      "Ġpreviously": 3470,
      "Ġfirm": 3471,
      "Ġeye": 3472,
      "dom": 3473,
      "Ġyourself": 3474,
      "Ġwel": 3475,
      "venue": 3476,
      "ta": 3477,
      "Ġdetail": 3478,
      "Ġsources": 3479,
      "Ġintegr": 3480,
      "Ġminim": 3481,
      "Ġallows": 3482,
      "Ġsmith": 3483,
      "Ġmeant": 3484,
      "Ġinsur": 3485,
      "Ġnecessary": 3486,
      "Ġilleg": 3487,
      "Ġrecords": 3488,
      "dd": 3489,
      "Ġgeorge": 3490,
      "reed": 3491,
      "Ġideas": 3492,
      "Ġwindows": 3493,
      "Ġforced": 3494,
      "Ġbay": 3495,
      "erve": 3496,
      "Ġpros": 3497,
      "Ġfollowed": 3498,
      "Ġsyria": 3499,
      "Ġacadem": 3500,
      "Ġcustomers": 3501,
      "Ġpus": 3502,
      "Ġmexic": 3503,
      "Ġeasily": 3504,
      "Ġdu": 3505,
      "Ġsigned": 3506,
      "Ġunique": 3507,
      "Ġweapons": 3508,
      "Ġremo": 3509,
      "aling": 3510,
      "ste": 3511,
      "Ġsout": 3512,
      "Ġsusp": 3513,
      "Ġindependent": 3514,
      "Ġbenefits": 3515,
      "Ġmanagement": 3516,
      "Ġfort": 3517,
      "Ġrare": 3518,
      "ext": 3519,
      "ufact": 3520,
      "arm": 3521,
      "Ġpredict": 3522,
      "Ġplant": 3523,
      "Ġassociation": 3524,
      "Ġuses": 3525,
      "Ġfine": 3526,
      "Ġattorney": 3527,
      "Ġsend": 3528,
      "Ġprojects": 3529,
      "Ġgives": 3530,
      "Ġdoor": 3531,
      "Ġkick": 3532,
      "Ġcities": 3533,
      "Ġrand": 3534,
      "Ġshut": 3535,
      "Ġprimary": 3536,
      "Ġflor": 3537,
      "Ġcorrect": 3538,
      "Ġreached": 3539,
      "Ġconflic": 3540,
      "Ġmission": 3541,
      "Ġcell": 3542,
      "Ġbasic": 3543,
      "Ġliter": 3544,
      "resh": 3545,
      "Ġdecades": 3546,
      "Ġexpand": 3547,
      "Ġdownload": 3548,
      "Ġsho": 3549,
      "Ġord": 3550,
      "aly": 3551,
      "encies": 3552,
      "Ġfully": 3553,
      "Ġweight": 3554,
      "Ġgoals": 3555,
      "Ġfighting": 3556,
      "Ġindividuals": 3557,
      "Ġagreement": 3558,
      "Ġsea": 3559,
      "band": 3560,
      "Ġlines": 3561,
      "han": 3562,
      "cont": 3563,
      "itation": 3564,
      "oul": 3565,
      "Ġspread": 3566,
      "Ġknowledge": 3567,
      "gy": 3568,
      "nov": 3569,
      "Ġstraight": 3570,
      "Ġms": 3571,
      "Ġmanufact": 3572,
      "bon": 3573,
      "Ġpolitic": 3574,
      "Ġken": 3575,
      "Ġmeasure": 3576,
      "ero": 3577,
      "Ġdeveloped": 3578,
      "Ġauthorities": 3579,
      "Ġrise": 3580,
      "Ġwit": 3581,
      "board": 3582,
      "Ġshooting": 3583,
      "Ġwait": 3584,
      "ple": 3585,
      "Ġgirl": 3586,
      "Ġhun": 3587,
      "Ġmap": 3588,
      "Ġadding": 3589,
      "rec": 3590,
      "Ġlou": 3591,
      "Ġmarri": 3592,
      "Ġstyle": 3593,
      "Ġstatus": 3594,
      "ville": 3595,
      "Ġpicture": 3596,
      "Ġoptions": 3597,
      "Ġshar": 3598,
      "Ġthank": 3599,
      "Ġcontinues": 3600,
      "ivity": 3601,
      "ope": 3602,
      "ressed": 3603,
      "Ġactivity": 3604,
      "Ġadvant": 3605,
      "Ġchic": 3606,
      "Ġdetermin": 3607,
      "cul": 3608,
      "Ġprofessor": 3609,
      "Ġdut": 3610,
      "aint": 3611,
      "yal": 3612,
      "Ġrates": 3613,
      "Ġlarger": 3614,
      "Ġnoted": 3615,
      "Ġorganiz": 3616,
      "Ġappeared": 3617,
      "da": 3618,
      "Ġpartners": 3619,
      "icient": 3620,
      "35": 3621,
      "mo": 3622,
      "Ġnormal": 3623,
      "Ġhighly": 3624,
      "Ġcalling": 3625,
      "Ġenem": 3626,
      "Ġborder": 3627,
      "Ġgrant": 3628,
      "Ġcra": 3629,
      "Ġchristian": 3630,
      "Ġconstitution": 3631,
      "Ġprograms": 3632,
      "icit": 3633,
      "Ġdomin": 3634,
      "Ġemployees": 3635,
      "Ġenforce": 3636,
      "Ġvan": 3637,
      "Ġarab": 3638,
      "Ġplaces": 3639,
      "Ġbirth": 3640,
      "Ġscen": 3641,
      "45": 3642,
      "sey": 3643,
      "Ġqual": 3644,
      "itely": 3645,
      "Ġalbum": 3646,
      "Ġemot": 3647,
      "ortion": 3648,
      "Ġabsolute": 3649,
      "Ġsuccessful": 3650,
      "Ġseemed": 3651,
      "Ġjump": 3652,
      "orter": 3653,
      "Ġamb": 3654,
      "rant": 3655,
      "Ġfemale": 3656,
      "Ġalex": 3657,
      "iles": 3658,
      "Ġbul": 3659,
      "ki": 3660,
      "Ġtrou": 3661,
      "Ġpatients": 3662,
      "Ġscott": 3663,
      "Ġowners": 3664,
      "Ġpolicies": 3665,
      "add": 3666,
      "Ġ\\": 3667,
      "Ġhillary": 3668,
      "iar": 3669,
      "Ġpm": 3670,
      "Ġmechan": 3671,
      "Ġtick": 3672,
      "Ġtraffic": 3673,
      "Ġund": 3674,
      "Ġtraditional": 3675,
      "Ġhaven": 3676,
      "Ġsell": 3677,
      "Ġoperations": 3678,
      "onents": 3679,
      "iate": 3680,
      "Ġry": 3681,
      "27": 3682,
      "Ġobser": 3683,
      "Ġlibr": 3684,
      "Ġattract": 3685,
      "isc": 3686,
      "Ġspend": 3687,
      "Ġkept": 3688,
      "Ġaward": 3689,
      "Ġfunding": 3690,
      "26": 3691,
      "Ġec": 3692,
      "âĪ": 3693,
      "Ġfoundation": 3694,
      "vin": 3695,
      "Ġeditor": 3696,
      "Ġfeet": 3697,
      "rs": 3698,
      "Ġmel": 3699,
      "Ġload": 3700,
      "Ġcreating": 3701,
      "Ġvac": 3702,
      "ota": 3703,
      "Ġflight": 3704,
      "clus": 3705,
      "Ġapplication": 3706,
      "Ġjew": 3707,
      "Ġfox": 3708,
      "ï¿": 3709,
      "Ġnone": 3710,
      "term": 3711,
      "Ġadop": 3712,
      "Ġprices": 3713,
      "Ġfavorite": 3714,
      "ï¿½": 3715,
      "Ġneighbor": 3716,
      "Ġknows": 3717,
      "ca": 3718,
      "Ġindeed": 3719,
      "Ġseeing": 3720,
      "ĠâĢ¢": 3721,
      "Ġtherefore": 3722,
      "ado": 3723,
      "Ġreflect": 3724,
      "Ġnotes": 3725,
      "Ġlawy": 3726,
      "don": 3727,
      "Ġ2007": 3728,
      "alled": 3729,
      "Ġpush": 3730,
      "Ġnames": 3731,
      "Ġtransport": 3732,
      "Ġhack": 3733,
      "Ġrevolution": 3734,
      "Ġrat": 3735,
      "Ġrefe": 3736,
      "Ġbeg": 3737,
      "Ġadult": 3738,
      "ocked": 3739,
      "Ġmemory": 3740,
      "Ġleaving": 3741,
      "Ġfrank": 3742,
      "Ġacqu": 3743,
      "Ġengland": 3744,
      "Ġbehavior": 3745,
      "nel": 3746,
      "Ġbed": 3747,
      "Ġcaused": 3748,
      "Ġtrib": 3749,
      "Ġvalues": 3750,
      "Ġmobile": 3751,
      "Ġstrategy": 3752,
      "Ġconcerns": 3753,
      "iced": 3754,
      "Ġslight": 3755,
      "wide": 3756,
      "Ġtheory": 3757,
      "Ġweekend": 3758,
      "Ġimpl": 3759,
      "Ġchem": 3760,
      "Ġmcc": 3761,
      "Ġhus": 3762,
      "Ġbrief": 3763,
      "Ġcharges": 3764,
      "Ġfranc": 3765,
      "Ġactual": 3766,
      "Ġscientists": 3767,
      "yl": 3768,
      "Ġadvoc": 3769,
      "Ġgal": 3770,
      "part": 3771,
      "Ġassault": 3772,
      "Ġchicago": 3773,
      "Ġtemper": 3774,
      "Ġfant": 3775,
      "Ġspl": 3776,
      "Ġfrance": 3777,
      "Ġchoose": 3778,
      "Ġclick": 3779,
      "lection": 3780,
      "Ġresidents": 3781,
      "Ġteac": 3782,
      "Ġraised": 3783,
      "Ġdetect": 3784,
      "Ġspeaking": 3785,
      "Ġbush": 3786,
      "Ġwalk": 3787,
      "Ġborn": 3788,
      "Ġcars": 3789,
      "Ġfif": 3790,
      "ocks": 3791,
      "Ġclaimed": 3792,
      "Ġriver": 3793,
      "Ġmostly": 3794,
      "Ġwilling": 3795,
      "pri": 3796,
      "Ġdouble": 3797,
      "Ġopposition": 3798,
      "Ġchann": 3799,
      "ell": 3800,
      "hi": 3801,
      "ented": 3802,
      ".âĢĻ": 3803,
      "ara": 3804,
      "Ġmale": 3805,
      "Ġended": 3806,
      "ady": 3807,
      "Ġhappens": 3808,
      "olic": 3809,
      "Ġestabl": 3810,
      "Ġsupposed": 3811,
      "Ġstock": 3812,
      "):": 3813,
      "Ġkid": 3814,
      "Ġdemonstr": 3815,
      "Ġsleep": 3816,
      "Ġheavy": 3817,
      "with": 3818,
      "Ġinvestment": 3819,
      "Ġflorida": 3820,
      "Ġelectric": 3821,
      "Ġlearning": 3822,
      "Ġmachine": 3823,
      "Ġcrowd": 3824,
      "Ġcritical": 3825,
      "ares": 3826,
      "point": 3827,
      "Ġsubsc": 3828,
      "Ġbag": 3829,
      "Ġtelevision": 3830,
      "antly": 3831,
      "rency": 3832,
      "Ġparties": 3833,
      "Ġnine": 3834,
      "ribution": 3835,
      "Ġsky": 3836,
      "Ġunit": 3837,
      "Ġensure": 3838,
      "Ġmassive": 3839,
      "Ġnations": 3840,
      "roid": 3841,
      "Ġmiles": 3842,
      "Ġprofessional": 3843,
      "Ġdevices": 3844,
      "Ġsud": 3845,
      "Ġtrain": 3846,
      "21": 3847,
      "vere": 3848,
      "Ġgay": 3849,
      "Ġfeeling": 3850,
      "29": 3851,
      "Ġvehicle": 3852,
      "ube": 3853,
      "Ġoffered": 3854,
      "Ġfarm": 3855,
      "Ġoccup": 3856,
      "Ġopening": 3857,
      "Ġplus": 3858,
      "onent": 3859,
      "Ġgenerally": 3860,
      "Ġdefend": 3861,
      "iled": 3862,
      "100": 3863,
      "Ġflag": 3864,
      "Ġresist": 3865,
      "Ġreact": 3866,
      "Ġproduced": 3867,
      "ounds": 3868,
      "Ġtend": 3869,
      "Ġepisode": 3870,
      "Ġmarriage": 3871,
      "Ġfle": 3872,
      "mark": 3873,
      "28": 3874,
      "Ġarrested": 3875,
      "Ġmike": 3876,
      "Ġcondition": 3877,
      "Ġjun": 3878,
      "Ġproduce": 3879,
      "itude": 3880,
      "Ġworse": 3881,
      "Ġign": 3882,
      "Ġcommerc": 3883,
      "iel": 3884,
      "ae": 3885,
      "Ġinfluence": 3886,
      "Ġhundreds": 3887,
      "Ġmaster": 3888,
      "Ġshowing": 3889,
      "Ġsolution": 3890,
      "Ġrevealed": 3891,
      "iance": 3892,
      "Ġetc": 3893,
      "Ġbomb": 3894,
      "Ġtrial": 3895,
      "Ġlearned": 3896,
      "500": 3897,
      "itz": 3898,
      "Ġvs": 3899,
      "Ġast": 3900,
      "Ġlocation": 3901,
      "Ġbenefit": 3902,
      "Ġconfirmed": 3903,
      "Ġnotice": 3904,
      "Ġdollars": 3905,
      "estic": 3906,
      "Ġdebt": 3907,
      "Ġship": 3908,
      "Ġactive": 3909,
      "Ġbelieved": 3910,
      "Ġlose": 3911,
      "Ġunderstanding": 3912,
      "Ġspirit": 3913,
      "ona": 3914,
      "Ġspring": 3915,
      "Ġprovides": 3916,
      "Ġemp": 3917,
      "Ġcoast": 3918,
      "Ġruns": 3919,
      "Ġwhom": 3920,
      "Ġprotection": 3921,
      "Ġsolid": 3922,
      "Ġopinion": 3923,
      "âĢĿ,": 3924,
      "Ġmir": 3925,
      "Ġasking": 3926,
      "Ġreplace": 3927,
      "Ġnegot": 3928,
      "Ġdestroy": 3929,
      "Ġframe": 3930,
      "uana": 3931,
      "rian": 3932,
      "Ġtypes": 3933,
      "istry": 3934,
      "Ġsubm": 3935,
      "Ġeffective": 3936,
      "Ġoccas": 3937,
      "Ġafford": 3938,
      "33": 3939,
      "________": 3940,
      ".'": 3941,
      "Ġpattern": 3942,
      "ica": 3943,
      "Ġmillions": 3944,
      "Ġassum": 3945,
      "Ġfrancis": 3946,
      "pm": 3947,
      "Ġfaith": 3948,
      "any": 3949,
      "soft": 3950,
      "eth": 3951,
      "Ġjoined": 3952,
      "Ġdin": 3953,
      "Ġbottom": 3954,
      "aked": 3955,
      "liament": 3956,
      "Ġinstitute": 3957,
      "Ġburn": 3958,
      "Ġrestrict": 3959,
      "airs": 3960,
      "uit": 3961,
      "Ġwil": 3962,
      "Ġdefe": 3963,
      "abor": 3964,
      "Ġlimit": 3965,
      "nn": 3966,
      "Ġinterested": 3967,
      "Ġsanders": 3968,
      "Ġobs": 3969,
      "70": 3970,
      "Ġagreed": 3971,
      "Ġspecies": 3972,
      "Ġbackground": 3973,
      "Ġwis": 3974,
      "Ġbanks": 3975,
      "Ġwitness": 3976,
      "Ġjohnson": 3977,
      "Ġfresh": 3978,
      "Ġinitial": 3979,
      "Ġscore": 3980,
      "Ġhighest": 3981,
      "Ġenvironmental": 3982,
      "cell": 3983,
      "Ġpalest": 3984,
      "ijuana": 3985,
      "Ġcash": 3986,
      "Ġcancer": 3987,
      "house": 3988,
      "gar": 3989,
      "Ġparliament": 3990,
      "Ġcamera": 3991,
      "Ġobtain": 3992,
      "Ġgraph": 3993,
      "win": 3994,
      "Ġcards": 3995,
      "known": 3996,
      "Ġresponsible": 3997,
      "wing": 3998,
      "Ġauthority": 3999,
      "ription": 4000,
      "Ġcentre": 4001,
      "Ġapply": 4002,
      "Ġinsurance": 4003,
      "Ġoffers": 4004,
      "Ġachieve": 4005,
      "Ġkorea": 4006,
      "Ġchris": 4007,
      "Ġvictims": 4008,
      "Ġcold": 4009,
      "Ġanc": 4010,
      "Ġexperiment": 4011,
      "Ġnfl": 4012,
      "Ġputting": 4013,
      "Ġproposed": 4014,
      "Ġflow": 4015,
      "des": 4016,
      "Ġgeneration": 4017,
      "Ġcas": 4018,
      "Ġmonit": 4019,
      "Ġcanadian": 4020,
      "imately": 4021,
      "Ġpu": 4022,
      "po": 4023,
      "know": 4024,
      "mine": 4025,
      "hol": 4026,
      "Ġdocuments": 4027,
      "Ġadvantage": 4028,
      "Ġfalse": 4029,
      "Ġbasis": 4030,
      "Ġteach": 4031,
      "Ġrestaur": 4032,
      "Ġexchange": 4033,
      "met": 4034,
      "Ġincred": 4035,
      "Ġreject": 4036,
      "Ġhousing": 4037,
      "Ġdisease": 4038,
      "Ġliberal": 4039,
      "Ġ80": 4040,
      "works": 4041,
      "zen": 4042,
      "Ġgirls": 4043,
      "Ġsurround": 4044,
      "Ġsnow": 4045,
      "Ġsurface": 4046,
      "Ġcooper": 4047,
      "tw": 4048,
      "Ġwinning": 4049,
      "Ġrobert": 4050,
      "Ġconvention": 4051,
      "Ġoperation": 4052,
      "za": 4053,
      "inger": 4054,
      "Ġcateg": 4055,
      "Ġheat": 4056,
      "Ġbecoming": 4057,
      "Ġthom": 4058,
      "sen": 4059,
      "Ġbelief": 4060,
      "Ġhair": 4061,
      "Ġplanet": 4062,
      "Ġdriver": 4063,
      "Ġenforcement": 4064,
      "Ġillegal": 4065,
      "Ġhell": 4066,
      "Ġannounce": 4067,
      "Ġpurpose": 4068,
      "can": 4069,
      "rep": 4070,
      "rants": 4071,
      "Ġtools": 4072,
      "Ġfinding": 4073,
      "coming": 4074,
      "Ġsurvey": 4075,
      "Ġannual": 4076,
      "Ġcommercial": 4077,
      "bre": 4078,
      "Ġexplained": 4079,
      "Ġbecomes": 4080,
      "Ġfourth": 4081,
      "Ġsupporters": 4082,
      "Ġcontrovers": 4083,
      "Ġbon": 4084,
      "Ġopened": 4085,
      "Ġserve": 4086,
      "Ġstor": 4087,
      "Ġmagaz": 4088,
      "when": 4089,
      "Ġmarijuana": 4090,
      "Ġreduce": 4091,
      "Ġleadership": 4092,
      "Ġcompetition": 4093,
      "Ġvictory": 4094,
      "igned": 4095,
      "Ġ31": 4096,
      "lied": 4097,
      "Ġwatching": 4098,
      "Ġcommunities": 4099,
      "Ġislamic": 4100,
      "Ġonto": 4101,
      "vant": 4102,
      "Ġshared": 4103,
      "Ġnegative": 4104,
      "gl": 4105,
      "Ġtransfer": 4106,
      "Ġded": 4107,
      "Ġveter": 4108,
      "90": 4109,
      "Ġii": 4110,
      "Ġvari": 4111,
      "Ġdat": 4112,
      "Ġexisting": 4113,
      "Ġworst": 4114,
      "iring": 4115,
      "Ġcoverage": 4116,
      "Ġaudience": 4117,
      "Ġconstruction": 4118,
      "Ġseparate": 4119,
      "Ġdream": 4120,
      "Ġconsequ": 4121,
      "Ġextremely": 4122,
      "Ġlegislation": 4123,
      "Ġram": 4124,
      "Ġstructure": 4125,
      "Ġjones": 4126,
      "oth": 4127,
      "Ġitems": 4128,
      "Ġluck": 4129,
      "Ġaccused": 4130,
      "Ġsad": 4131,
      "icking": 4132,
      "Ġargument": 4133,
      "Ġwealth": 4134,
      "Ġmig": 4135,
      "Ġhearing": 4136,
      "she": 4137,
      "Ġdefinitely": 4138,
      "Ġsquare": 4139,
      "uters": 4140,
      "Ġexplain": 4141,
      "Ġ2006": 4142,
      "rial": 4143,
      "Ġanimals": 4144,
      "Ġcompar": 4145,
      "Ġos": 4146,
      "dule": 4147,
      "uries": 4148,
      "Ġcook": 4149,
      "Ġfuel": 4150,
      "Ġsupreme": 4151,
      "Ġpil": 4152,
      "Ġcomfort": 4153,
      "Ġotherwise": 4154,
      "Ġplanning": 4155,
      "Ġplanned": 4156,
      "Ġserved": 4157,
      "Ġsites": 4158,
      "Ġtesting": 4159,
      "Ġnorthern": 4160,
      "enn": 4161,
      "Ġpy": 4162,
      "Ġeasier": 4163,
      "Ġdriving": 4164,
      "Ġ35": 4165,
      "racy": 4166,
      "Ġdoubt": 4167,
      "Ġdrugs": 4168,
      "Ġsupported": 4169,
      "Ġsouthern": 4170,
      "ios": 4171,
      "Ġdangerous": 4172,
      "Ġnovel": 4173,
      "Ġrough": 4174,
      "wr": 4175,
      "Ġexerc": 4176,
      "resp": 4177,
      "Ġisraeli": 4178,
      "Ġsport": 4179,
      "Ġfellow": 4180,
      "Ġjim": 4181,
      "ek": 4182,
      "Ġviews": 4183,
      "ami": 4184,
      "iful": 4185,
      "aud": 4186,
      "Ġ90": 4187,
      "Ġalleg": 4188,
      "Ġreturned": 4189,
      "Ġstrength": 4190,
      "Ġcollection": 4191,
      "Ġcontinu": 4192,
      "====": 4193,
      "Ġimagine": 4194,
      "Ġju": 4195,
      "Ġmayor": 4196,
      "Ġeat": 4197,
      "Ġatl": 4198,
      "Ġmulti": 4199,
      "Ġrequires": 4200,
      "Ġjeff": 4201,
      "Ġbritain": 4202,
      "Ġaspect": 4203,
      "Ġgovernor": 4204,
      "Ġtweet": 4205,
      "going": 4206,
      "Ġfloor": 4207,
      "ustr": 4208,
      "col": 4209,
      "Ġrid": 4210,
      "atically": 4211,
      "rim": 4212,
      "Ġhighlight": 4213,
      "tered": 4214,
      "Ġissued": 4215,
      "Ġpac": 4216,
      "Ġtelling": 4217,
      "Ġmurder": 4218,
      "Ġdoct": 4219,
      "Ġbusinesses": 4220,
      "ada": 4221,
      "Ġinstance": 4222,
      "Ġclosed": 4223,
      "Ġfbi": 4224,
      "istics": 4225,
      "Ġlaunched": 4226,
      "Ġfigh": 4227,
      "which": 4228,
      "Ġsmaller": 4229,
      "ros": 4230,
      "Ġlu": 4231,
      "Ġimmigration": 4232,
      "Ġcaption": 4233,
      "olf": 4234,
      "Ġdivision": 4235,
      "aks": 4236,
      "Ġvirgin": 4237,
      "Ġspoke": 4238,
      "acity": 4239,
      "Ġandroid": 4240,
      "ka": 4241,
      "32": 4242,
      "Ġattend": 4243,
      "Ġcontext": 4244,
      "Ġsolar": 4245,
      "Ġgall": 4246,
      "Ġstated": 4247,
      "ho": 4248,
      "Ġentertain": 4249,
      "Ġze": 4250,
      "Ġcontain": 4251,
      "Ġrepeated": 4252,
      "ography": 4253,
      "Ġfer": 4254,
      "Ġamazing": 4255,
      "Ġsequ": 4256,
      "Ġabuse": 4257,
      "Ġtrip": 4258,
      "Ġdirection": 4259,
      "irt": 4260,
      "Ġcarol": 4261,
      "Ġtransform": 4262,
      "Ġmut": 4263,
      "Ġdyn": 4264,
      "Ġplays": 4265,
      "war": 4266,
      "âĢĶâĢĶ": 4267,
      "Ġalternative": 4268,
      "Ġscale": 4269,
      "Ġolder": 4270,
      "Ġspect": 4271,
      "Ġsupply": 4272,
      "Ġprosecut": 4273,
      "iated": 4274,
      "Ġapparently": 4275,
      "ius": 4276,
      "Ġguess": 4277,
      "Ġwars": 4278,
      "Ġlabour": 4279,
      "onic": 4280,
      "itable": 4281,
      "Ġconcerned": 4282,
      "hl": 4283,
      "Ġtask": 4284,
      "Ġdecade": 4285,
      "cons": 4286,
      "Ġtow": 4287,
      "Ġholding": 4288,
      "Ġdaughter": 4289,
      "Ġvice": 4290,
      "Ġdoctor": 4291,
      "Ġentirely": 4292,
      "Ġrichard": 4293,
      "Ġgree": 4294,
      "Ġunfortun": 4295,
      "Ġcatch": 4296,
      "oted": 4297,
      "Ġcharged": 4298,
      "Ġtruly": 4299,
      "Ġdiscovered": 4300,
      "Ġsuggested": 4301,
      "inct": 4302,
      "Ġmand": 4303,
      "Ġbeer": 4304,
      "44": 4305,
      "Ġmode": 4306,
      "Ġinnov": 4307,
      "Ġmicrosoft": 4308,
      "Ġestablish": 4309,
      "ifying": 4310,
      "mas": 4311,
      "Ġtransl": 4312,
      "Ġaccur": 4313,
      "Ġcells": 4314,
      "Ġactivities": 4315,
      "Ġscientific": 4316,
      "Ġrefuge": 4317,
      "Ġ70": 4318,
      "Ġmissing": 4319,
      "ghan": 4320,
      "Ġconcern": 4321,
      "bing": 4322,
      "cs": 4323,
      "ĠÐ": 4324,
      "Ġchampionship": 4325,
      "Ġgop": 4326,
      "Ġstrike": 4327,
      "Ġcab": 4328,
      "Ġstars": 4329,
      "Ġidentity": 4330,
      "Ġcandidates": 4331,
      "Ġcho": 4332,
      "Ġlength": 4333,
      "Ġhomes": 4334,
      "Ġultimately": 4335,
      "Ġobviously": 4336,
      "Ġrecommend": 4337,
      "Ġinn": 4338,
      "Ġserver": 4339,
      "Ġcaught": 4340,
      "Ġmeanwhile": 4341,
      "Ġgam": 4342,
      "Ġdiscussion": 4343,
      "equ": 4344,
      "Ġallowing": 4345,
      "Ġremoved": 4346,
      "Ġraise": 4347,
      "Ġanimal": 4348,
      "Ġdism": 4349,
      "Ġharm": 4350,
      "Ġseconds": 4351,
      "Ġfest": 4352,
      "izes": 4353,
      "bour": 4354,
      "Ġaware": 4355,
      "ulf": 4356,
      "Ġsetting": 4357,
      "semb": 4358,
      "Ġassess": 4359,
      "ario": 4360,
      "ique": 4361,
      "Ġowner": 4362,
      "Ġwaiting": 4363,
      "Ġgain": 4364,
      "Ġunless": 4365,
      "Ġtrail": 4366,
      "Ġkeeping": 4367,
      "Ġfiles": 4368,
      "antic": 4369,
      "Ġton": 4370,
      "Ġip": 4371,
      "Ġestablished": 4372,
      "Ġconflict": 4373,
      "Ġsudden": 4374,
      "Ġregist": 4375,
      "Ġsac": 4376,
      "Ġcopyright": 4377,
      "Ġpak": 4378,
      "Ġ2005": 4379,
      "Ġmartin": 4380,
      "Ġukrain": 4381,
      "36": 4382,
      "oses": 4383,
      "Ġlargely": 4384,
      "Ġpresence": 4385,
      "Ġlouis": 4386,
      "Ġsher": 4387,
      "Ġmental": 4388,
      "anta": 4389,
      "Ġmary": 4390,
      "Ġthomas": 4391,
      "vent": 4392,
      "Ġproviding": 4393,
      "Ġamend": 4394,
      "!âĢĿ": 4395,
      "Ġintel": 4396,
      "Ġscript": 4397,
      "Ġbelieves": 4398,
      "Ġplaced": 4399,
      "Ġuseful": 4400,
      "rom": 4401,
      "Ġera": 4402,
      "Ġintroduced": 4403,
      "Ġryan": 4404,
      "Ġstanding": 4405,
      "Ġnewsp": 4406,
      "onto": 4407,
      "Ġspokesman": 4408,
      "Ġterrit": 4409,
      "Ġfigures": 4410,
      "ding": 4411,
      "eter": 4412,
      "Ġafrica": 4413,
      "ulated": 4414,
      "hem": 4415,
      "Ġsust": 4416,
      "Ġconnection": 4417,
      "Ġtells": 4418,
      "Ġstandards": 4419,
      "Ġath": 4420,
      "Ġskills": 4421,
      "Ġoffensive": 4422,
      "Ġna": 4423,
      "Ġdefensive": 4424,
      "tery": 4425,
      "Ġafrican": 4426,
      "Ġskin": 4427,
      "issions": 4428,
      "Ġdecisions": 4429,
      "Ġphilos": 4430,
      "Ġconversation": 4431,
      "Ġjewish": 4432,
      "ining": 4433,
      "Ġlisten": 4434,
      "Ġmort": 4435,
      "Ġinteract": 4436,
      "Ġjon": 4437,
      "Ġbaby": 4438,
      "Ġfell": 4439,
      "Ġbull": 4440,
      "Ġdeliver": 4441,
      "acing": 4442,
      "rative": 4443,
      "Ġtun": 4444,
      "sec": 4445,
      "igan": 4446,
      "Ġspan": 4447,
      "Ġali": 4448,
      "Ġreligion": 4449,
      "Ġoptim": 4450,
      "Ġangeles": 4451,
      "Ġhate": 4452,
      "Ġinjury": 4453,
      "Ġmeasures": 4454,
      "Ġlibrary": 4455,
      "48": 4456,
      "iling": 4457,
      "season": 4458,
      "Ġappropri": 4459,
      "pective": 4460,
      "75": 4461,
      "Ġgender": 4462,
      "ocking": 4463,
      "Ġdepend": 4464,
      "Ġuns": 4465,
      "Ġchap": 4466,
      "Ġpair": 4467,
      "gs": 4468,
      "Ġadvis": 4469,
      "Ġmentioned": 4470,
      "Ġstopped": 4471,
      "Ġjapanese": 4472,
      "osh": 4473,
      "Ġ2000": 4474,
      "Ġsteps": 4475,
      "38": 4476,
      "Ġcart": 4477,
      "Ġacknow": 4478,
      "lig": 4479,
      "Ġglass": 4480,
      "word": 4481,
      "Ġinternal": 4482,
      "Ġpartner": 4483,
      "Ġmaxim": 4484,
      "lines": 4485,
      "Ġhonest": 4486,
      "kins": 4487,
      "Ġpalestin": 4488,
      "Ġfailure": 4489,
      "Ġmexico": 4490,
      "Ġbod": 4491,
      "onym": 4492,
      "Ġcorner": 4493,
      "Ġkilling": 4494,
      "Ġinterests": 4495,
      "Ġweak": 4496,
      "Ġmarkets": 4497,
      "cks": 4498,
      "osure": 4499,
      "Ġdomestic": 4500,
      "Ġgh": 4501,
      "Ġprefer": 4502,
      "Ġjoe": 4503,
      "Ġfocused": 4504,
      "tic": 4505,
      "Ġnic": 4506,
      "Ġing": 4507,
      "Ġafghan": 4508,
      "Ġimposs": 4509,
      "Ġfol": 4510,
      "Ġtough": 4511,
      "Ġtaxes": 4512,
      "âĢľ": 4513,
      "Ġtests": 4514,
      "ancy": 4515,
      "Ġmodels": 4516,
      "Ġhasn": 4517,
      "Ġwish": 4518,
      "Ġfunds": 4519,
      "ula": 4520,
      "ception": 4521,
      "Ġconclud": 4522,
      "unk": 4523,
      "isation": 4524,
      "suit": 4525,
      "Ġexperts": 4526,
      "Ġcircum": 4527,
      "Ġwriter": 4528,
      "Ġsav": 4529,
      "Ġcommitted": 4530,
      "Ġidentified": 4531,
      "oms": 4532,
      "Ġmatt": 4533,
      "Ġprivacy": 4534,
      "rees": 4535,
      "arant": 4536,
      "nd": 4537,
      "real": 4538,
      "Ġnas": 4539,
      "Ġrus": 4540,
      "Ġmanaged": 4541,
      "Ġslightly": 4542,
      "Ġ;": 4543,
      "rif": 4544,
      "Ġturns": 4545,
      "Ġdevelopers": 4546,
      "ulate": 4547,
      "Ġcorporate": 4548,
      "Ġpeter": 4549,
      "hand": 4550,
      "Ġrelatively": 4551,
      "Ġaccident": 4552,
      "Ġaggress": 4553,
      "Ġ2018": 4554,
      "Ġconsult": 4555,
      "Ġpakistan": 4556,
      "roll": 4557,
      "Ġrain": 4558,
      "Ġvision": 4559,
      "Ġoriginally": 4560,
      "prof": 4561,
      "Ġfinished": 4562,
      "Ġtalks": 4563,
      "oon": 4564,
      "Ġgard": 4565,
      "Ġfiled": 4566,
      "Ġobvious": 4567,
      "Ġfeels": 4568,
      "Ġsounds": 4569,
      "Ġven": 4570,
      "state": 4571,
      "Ġpit": 4572,
      "Ġarrived": 4573,
      "Ġinterp": 4574,
      "Ġhusband": 4575,
      "Ġvul": 4576,
      "Ġspecifically": 4577,
      "Ġunits": 4578,
      "Ġabsolutely": 4579,
      "Ġrose": 4580,
      "Ġbond": 4581,
      "Ġorganizations": 4582,
      "Ġwindow": 4583,
      "Ġvariety": 4584,
      "Ġlob": 4585,
      "Ġsale": 4586,
      "Ġmotor": 4587,
      "Ġelements": 4588,
      "agn": 4589,
      "aves": 4590,
      "Ġapplications": 4591,
      "kin": 4592,
      "Ġlie": 4593,
      "Ġmagic": 4594,
      "Ġhumans": 4595,
      "outs": 4596,
      "Ġbrow": 4597,
      "Ġforest": 4598,
      "umn": 4599,
      "Ġelectron": 4600,
      "Ġmagazine": 4601,
      "55": 4602,
      "Ġjose": 4603,
      "Ġoperating": 4604,
      "Ġrang": 4605,
      "Ġsor": 4606,
      "34": 4607,
      "Ġarms": 4608,
      "Ġtoronto": 4609,
      "Ġbigger": 4610,
      "Ġbern": 4611,
      "Ġcou": 4612,
      "Ġregarding": 4613,
      "icip": 4614,
      "Ġmere": 4615,
      "ivers": 4616,
      "Ġ32": 4617,
      "Ġbalance": 4618,
      "Ġneighborhood": 4619,
      "under": 4620,
      "Ġmas": 4621,
      "town": 4622,
      "Ġsubscrib": 4623,
      "rol": 4624,
      "Ġyouth": 4625,
      "37": 4626,
      "Ġnut": 4627,
      "Ġamazon": 4628,
      "ipped": 4629,
      "Ġjav": 4630,
      "fc": 4631,
      "Ġsuggests": 4632,
      "Ġsenator": 4633,
      "eness": 4634,
      "Ġlake": 4635,
      "rast": 4636,
      "bu": 4637,
      "Ġsoldiers": 4638,
      "Ġhang": 4639,
      "Ġstarts": 4640,
      "stream": 4641,
      "Ġelections": 4642,
      "Ġchanging": 4643,
      "Ġtourn": 4644,
      "Ġoce": 4645,
      "Ġbeautiful": 4646,
      "Ġseek": 4647,
      "Ġteen": 4648,
      "Ġped": 4649,
      "agues": 4650,
      "ya": 4651,
      "Ġassemb": 4652,
      "mi": 4653,
      "ructure": 4654,
      "Ġshall": 4655,
      "Ġequip": 4656,
      "gypt": 4657,
      "inated": 4658,
      "name": 4659,
      "asy": 4660,
      "Ġcarbon": 4661,
      "Ġerror": 4662,
      "Ġappoint": 4663,
      "run": 4664,
      "hal": 4665,
      "Ġmont": 4666,
      "Ġhappening": 4667,
      "Ġcuts": 4668,
      "sl": 4669,
      "inn": 4670,
      "Ġcann": 4671,
      "Ġeastern": 4672,
      "Ġlas": 4673,
      "Ġfamiliar": 4674,
      "Ġvisual": 4675,
      "aded": 4676,
      "57": 4677,
      "Ġaccounts": 4678,
      "Ġfish": 4679,
      "Ġimpossible": 4680,
      "icide": 4681,
      "Ġdar": 4682,
      "Ġbob": 4683,
      "rick": 4684,
      "oh": 4685,
      "eration": 4686,
      "Ġhealthy": 4687,
      "39": 4688,
      "ship": 4689,
      "Ġneither": 4690,
      "inking": 4691,
      "****": 4692,
      "Ġchannel": 4693,
      "Ġhaw": 4694,
      "Ġhelping": 4695,
      "anda": 4696,
      "Ġstad": 4697,
      "riend": 4698,
      "enses": 4699,
      "Ġpossibly": 4700,
      "Ġsides": 4701,
      "Ġswitch": 4702,
      "Ġtast": 4703,
      "ques": 4704,
      "hedul": 4705,
      "Ġtwice": 4706,
      "Ġclin": 4707,
      "Ġalt": 4708,
      "Ġedge": 4709,
      "Ġcub": 4710,
      "ola": 4711,
      "Ġdegree": 4712,
      "Ġbid": 4713,
      "Ġfundament": 4714,
      "oto": 4715,
      "Ġadjust": 4716,
      "Ġlee": 4717,
      "eless": 4718,
      "].": 4719,
      "Ġcarried": 4720,
      "ãĤ": 4721,
      "ran": 4722,
      "Ġcath": 4723,
      "Ġpenal": 4724,
      "Ġinsp": 4725,
      "Ġbasically": 4726,
      "Ġincreasingly": 4727,
      "van": 4728,
      "Ġcombat": 4729,
      "Ġbreat": 4730,
      "Ġboston": 4731,
      "Ġdecide": 4732,
      "Ġesp": 4733,
      "49": 4734,
      "life": 4735,
      "Ġdropped": 4736,
      "place": 4737,
      "Ġexpert": 4738,
      "Ġvotes": 4739,
      "lor": 4740,
      "ansion": 4741,
      "Ġsitting": 4742,
      "Ġpictures": 4743,
      "Ġdeveloping": 4744,
      "Ġjail": 4745,
      "Ġcoff": 4746,
      "erous": 4747,
      "Ġvideos": 4748,
      "Ġpc": 4749,
      "ett": 4750,
      "Ġemergency": 4751,
      "Ġemb": 4752,
      "Ġrevenue": 4753,
      "Ġnative": 4754,
      "Ġlosing": 4755,
      "Ġjes": 4756,
      "Ġagencies": 4757,
      "uate": 4758,
      "Ġ45": 4759,
      "stein": 4760,
      "star": 4761,
      "Ġtack": 4762,
      "Ġsyrian": 4763,
      "ils": 4764,
      "Ġfamous": 4765,
      "ih": 4766,
      "hens": 4767,
      "Ġhyp": 4768,
      "Ġrapid": 4769,
      "Ġchairman": 4770,
      "Ġposts": 4771,
      "Ġrandom": 4772,
      "class": 4773,
      "Ġegypt": 4774,
      "ef": 4775,
      "orial": 4776,
      "!\"": 4777,
      "Ġzone": 4778,
      "Ġpaying": 4779,
      "Ġseeking": 4780,
      "Ġlock": 4781,
      "Ġstick": 4782,
      "Ġexclus": 4783,
      "Ġworry": 4784,
      "Ã¡": 4785,
      "Ġmethods": 4786,
      "americ": 4787,
      "itect": 4788,
      "Ġtight": 4789,
      "Ġlived": 4790,
      "bel": 4791,
      "Ġagent": 4792,
      "Ġsteve": 4793,
      "Ġfrancisco": 4794,
      "Ġparis": 4795,
      "oles": 4796,
      "Ġconsidering": 4797,
      "Ġrail": 4798,
      "Ġschedul": 4799,
      "Ġwilliams": 4800,
      "Ġbroken": 4801,
      "Ġcloser": 4802,
      "ãĥ": 4803,
      "Ġcultural": 4804,
      "Ġearn": 4805,
      "Ġstadium": 4806,
      "Ġvoting": 4807,
      "Ġceo": 4808,
      "Ġguarant": 4809,
      "Ġox": 4810,
      "Ġhat": 4811,
      "dy": 4812,
      "ander": 4813,
      "Ġ2004": 4814,
      "Ġstreets": 4815,
      "Ġlord": 4816,
      "47": 4817,
      "Ġcapacity": 4818,
      "Ġsymb": 4819,
      "jo": 4820,
      "Ġinfrast": 4821,
      "Ġconsc": 4822,
      "Ġspr": 4823,
      "Ġexpensive": 4824,
      "Ġcovered": 4825,
      "Ġpowers": 4826,
      "Ġdeput": 4827,
      "Ġremove": 4828,
      "Ġelement": 4829,
      "Ġtree": 4830,
      "Ġrot": 4831,
      "Ġari": 4832,
      "Ġresponsibility": 4833,
      "ocol": 4834,
      "Ġestimated": 4835,
      "Ġvast": 4836,
      "icted": 4837,
      "Ġdeploy": 4838,
      "Ġvehicles": 4839,
      "Ġequal": 4840,
      "Ġfilms": 4841,
      "Ġlinked": 4842,
      "Ġkit": 4843,
      "Ġcraft": 4844,
      "Ġgovernments": 4845,
      "oned": 4846,
      "Ġmit": 4847,
      "lets": 4848,
      "ores": 4849,
      "Ġcrew": 4850,
      "Ġnov": 4851,
      "uration": 4852,
      "Ġpanel": 4853,
      "Ġpossibility": 4854,
      "Ġretail": 4855,
      "Ġengage": 4856,
      "Ġforms": 4857,
      "Ġsurprise": 4858,
      "idel": 4859,
      "Ġquant": 4860,
      "Ġlocated": 4861,
      "Ġwinter": 4862,
      "ests": 4863,
      "Ġpresented": 4864,
      "Ġsar": 4865,
      "Ġarmed": 4866,
      "Ġgreatest": 4867,
      "Ġequipment": 4868,
      "ologies": 4869,
      "Ġiniti": 4870,
      "Ġvo": 4871,
      "free": 4872,
      "pay": 4873,
      "Ġusa": 4874,
      "Ġtrig": 4875,
      "Ġweapon": 4876,
      "Ġarchitect": 4877,
      "Ġdiscl": 4878,
      "Ġfired": 4879,
      "care": 4880,
      "mes": 4881,
      "Ġsector": 4882,
      "lies": 4883,
      "Ġtact": 4884,
      "Ġsecure": 4885,
      "Ġmetal": 4886,
      "Ġdynam": 4887,
      "Ġprospect": 4888,
      "Ġrum": 4889,
      "Ġintended": 4890,
      "Ġadvent": 4891,
      "Ġchemical": 4892,
      "Ġbringing": 4893,
      "Ġfactors": 4894,
      "mail": 4895,
      "Ġinfrastructure": 4896,
      "Ġbridge": 4897,
      "Ġplenty": 4898,
      "Ġstress": 4899,
      "Ġpieces": 4900,
      "Ġhotel": 4901,
      "Ġfixed": 4902,
      "Ġshape": 4903,
      "Ġweather": 4904,
      "char": 4905,
      "Ġclar": 4906,
      "def": 4907,
      "Ġcarolina": 4908,
      "Ġseasons": 4909,
      "Ġaid": 4910,
      "Ġgro": 4911,
      "Ġarr": 4912,
      "Ġupdated": 4913,
      "01": 4914,
      "Ġcrack": 4915,
      "Ġtypically": 4916,
      "aren": 4917,
      "eper": 4918,
      "Ġkar": 4919,
      "Ġtransition": 4920,
      "Ġpercentage": 4921,
      "Ġclot": 4922,
      "Ġstone": 4923,
      "65": 4924,
      "Ġpackage": 4925,
      "ups": 4926,
      "Ġlots": 4927,
      "Ġrecru": 4928,
      "Ġaustralian": 4929,
      "Ġdram": 4930,
      "enced": 4931,
      "illing": 4932,
      "ato": 4933,
      "Ġbroadcast": 4934,
      "isted": 4935,
      "Ġker": 4936,
      "Ġhelps": 4937,
      "Ġalco": 4938,
      "Ġupgr": 4939,
      "apers": 4940,
      "isf": 4941,
      "rible": 4942,
      "Ġny": 4943,
      "Ġmuse": 4944,
      "Ġvirginia": 4945,
      "Ġoffering": 4946,
      "Ġatm": 4947,
      "Ġshad": 4948,
      "Ġapps": 4949,
      "Ġroll": 4950,
      "Ġseriously": 4951,
      "Ð¾": 4952,
      "Ġclim": 4953,
      "Ġbroke": 4954,
      "Ġdiet": 4955,
      "Ġhurt": 4956,
      "Ġoccurred": 4957,
      "Ġstret": 4958,
      "isher": 4959,
      "Ġflu": 4960,
      "ici": 4961,
      "Ġselling": 4962,
      "Ġjoint": 4963,
      "Ġpra": 4964,
      "Ġcloud": 4965,
      "Ġbes": 4966,
      "Ġchallenges": 4967,
      "Ġprepared": 4968,
      "Ġfaster": 4969,
      "Ġminimum": 4970,
      "Ġconducted": 4971,
      "0000": 4972,
      "otic": 4973,
      "porary": 4974,
      "Ġturkey": 4975,
      "ml": 4976,
      "Ġdetermine": 4977,
      "Ġly": 4978,
      "Ġcreative": 4979,
      "Ġproced": 4980,
      "Ġyards": 4981,
      "Ġforget": 4982,
      "Ġunfortunately": 4983,
      "Ġclassic": 4984,
      "Ġjackson": 4985,
      "Ġshift": 4986,
      "Ġadvanced": 4987,
      "Ġko": 4988,
      "ribute": 4989,
      "Ġuniverse": 4990,
      "Ġtechnical": 4991,
      "Ġcreation": 4992,
      "Ġcombined": 4993,
      "oty": 4994,
      "Ġinstruct": 4995,
      "Ġprove": 4996,
      "Ġwalking": 4997,
      "Ġproposal": 4998,
      "()": 4999,
      "Ġsupporting": 5000,
      "Ġelected": 5001,
      "Ġgri": 5002,
      "Ġvulner": 5003,
      "Ġheight": 5004,
      "Ġbought": 5005,
      "Ġsubs": 5006,
      "Ġsurprising": 5007,
      "greg": 5008,
      "Ġproceed": 5009,
      "phas": 5010,
      "Ġfinish": 5011,
      "Ġunp": 5012,
      "Ġguide": 5013,
      "Ġboost": 5014,
      "Ġconsumers": 5015,
      "Ġshop": 5016,
      "Ġevening": 5017,
      "Ġstring": 5018,
      "Ġwearing": 5019,
      "Ġmatters": 5020,
      "ingly": 5021,
      "Ġandrew": 5022,
      "Ġtroops": 5023,
      "Ġstudio": 5024,
      "Ġfactor": 5025,
      "Ġbuff": 5026,
      "Ġpotentially": 5027,
      "Ġscr": 5028,
      "Ġvoted": 5029,
      "Ġdemocracy": 5030,
      "makers": 5031,
      "Ġrenew": 5032,
      "comm": 5033,
      "Ġpoliticians": 5034,
      "Ġinfect": 5035,
      "Ġbac": 5036,
      "Ġsigns": 5037,
      "Ġcoord": 5038,
      "Ġflat": 5039,
      "ini": 5040,
      "Ġdun": 5041,
      "Ġcharl": 5042,
      "Ġconsumer": 5043,
      "Ġpurchase": 5044,
      "pass": 5045,
      "Ġconcent": 5046,
      "Ġbound": 5047,
      "Ġwilliam": 5048,
      "Ġpages": 5049,
      "Ġgiant": 5050,
      "Ġruling": 5051,
      "Ġappearance": 5052,
      "road": 5053,
      "31": 5054,
      "Ġmine": 5055,
      "Ġmail": 5056,
      "idden": 5057,
      "Ð°": 5058,
      "Ġadvance": 5059,
      "pet": 5060,
      "Ġpointed": 5061,
      "Ġweren": 5062,
      "Ġreduced": 5063,
      "Ġimpress": 5064,
      "Ġzero": 5065,
      "64": 5066,
      "Ġyester": 5067,
      "Ġeverybody": 5068,
      "cel": 5069,
      "Ġrefused": 5070,
      "Ġcollabor": 5071,
      "Ġfacing": 5072,
      "Ġnorm": 5073,
      "Ġremained": 5074,
      "Ġcalcul": 5075,
      "night": 5076,
      "Ġpositions": 5077,
      "Ġbright": 5078,
      "bn": 5079,
      "Ġexpressed": 5080,
      "Ġron": 5081,
      "Ġ1990": 5082,
      "Ġhandle": 5083,
      "Ġrecorded": 5084,
      "clusion": 5085,
      "ses": 5086,
      "Ġschol": 5087,
      "Ġnick": 5088,
      "Ġminute": 5089,
      "Ġreference": 5090,
      "Ġexplos": 5091,
      "Ġherself": 5092,
      "Ġroyal": 5093,
      "Ġconstruct": 5094,
      "Ġfro": 5095,
      "Ġdefault": 5096,
      "Ġroute": 5097,
      "Ġseat": 5098,
      "Ġod": 5099,
      "Ġrein": 5100,
      "Ġcaptain": 5101,
      "Ġenemy": 5102,
      "Ġaffected": 5103,
      "Ġinitially": 5104,
      "Ġappeal": 5105,
      "har": 5106,
      "Ġmun": 5107,
      "oman": 5108,
      "ww": 5109,
      "Ġboys": 5110,
      "Ġdetermined": 5111,
      "Ġgrew": 5112,
      "person": 5113,
      "related": 5114,
      "olved": 5115,
      "oma": 5116,
      "Ã¤": 5117,
      "Ġregime": 5118,
      "Ġaircraft": 5119,
      "Ġbowl": 5120,
      "Ġturning": 5121,
      "Ġmoral": 5122,
      "Ġgon": 5123,
      "uro": 5124,
      "Ġregional": 5125,
      "ashion": 5126,
      "Ġevolution": 5127,
      "Ġcro": 5128,
      "Ġbrew": 5129,
      "Ġartist": 5130,
      "Ġtrouble": 5131,
      "Ġsuit": 5132,
      "Ġexamples": 5133,
      "Ġgear": 5134,
      "Ġ500": 5135,
      "Ġsignificantly": 5136,
      "Ġafterno": 5137,
      "Ġleads": 5138,
      "Ġyesterday": 5139,
      "Ġplants": 5140,
      "Ġends": 5141,
      "Ġdrag": 5142,
      "bec": 5143,
      "Ġchart": 5144,
      "Ġcommunications": 5145,
      "Ġbol": 5146,
      "Ġpray": 5147,
      "Ġcoalition": 5148,
      "ading": 5149,
      "Ġshel": 5150,
      "Ġkim": 5151,
      "Ġnegoti": 5152,
      "etic": 5153,
      "Ġles": 5154,
      "Ġapprec": 5155,
      "Ġmovies": 5156,
      "ashed": 5157,
      "Ġgrab": 5158,
      "Ġurban": 5159,
      "Ġbure": 5160,
      "Ġmotiv": 5161,
      "Ġvalid": 5162,
      "Ġire": 5163,
      "ko": 5164,
      "Ġmuseum": 5165,
      "Ġcontrast": 5166,
      "Ġwire": 5167,
      "Ġdra": 5168,
      "Ġiron": 5169,
      "Ġske": 5170,
      "Ġopportunities": 5171,
      "Ġbbc": 5172,
      "Ġreporting": 5173,
      "Ġthoughts": 5174,
      "Ġsquad": 5175,
      "Ġcompleted": 5176,
      "omen": 5177,
      "Ġremaining": 5178,
      "ensions": 5179,
      "Ġinvolve": 5180,
      "Ġathlet": 5181,
      "Ġbreaking": 5182,
      "lder": 5183,
      "gment": 5184,
      "Ġnumerous": 5185,
      "Ġamendment": 5186,
      "Ġpool": 5187,
      "Ġcrimes": 5188,
      "Ġpitch": 5189,
      "ket": 5190,
      "Ġidentify": 5191,
      "Ġdial": 5192,
      "Ġstorage": 5193,
      "Ġobserv": 5194,
      "Ġexperienced": 5195,
      ",[": 5196,
      "Ġmyster": 5197,
      "zil": 5198,
      "Ġwik": 5199,
      "95": 5200,
      "Ġlit": 5201,
      "Ġtag": 5202,
      "Ġwidely": 5203,
      "Ġreaction": 5204,
      "Ġupdates": 5205,
      "Ġsaud": 5206,
      "Ġexcited": 5207,
      "Ġmax": 5208,
      "Ġpassing": 5209,
      "Ġindustrial": 5210,
      "Ġsilver": 5211,
      "Ġquiet": 5212,
      "Ġbatt": 5213,
      "hab": 5214,
      "Ġunable": 5215,
      "Ġdifferences": 5216,
      "Ġsin": 5217,
      "Ġ2001": 5218,
      "Ġexcell": 5219,
      "Ġstruggle": 5220,
      "car": 5221,
      "Ġnewslet": 5222,
      "lying": 5223,
      "Ġprofile": 5224,
      "Ġdistance": 5225,
      "Ġpulled": 5226,
      "Ġeval": 5227,
      "inte": 5228,
      "Ġcomed": 5229,
      "Ġafternoon": 5230,
      "viet": 5231,
      "Ġimper": 5232,
      "Ġanth": 5233,
      "Ġsets": 5234,
      "top": 5235,
      "Ġwrit": 5236,
      "Ġbelong": 5237,
      "Ġagents": 5238,
      "Ġreporters": 5239,
      "Ġcow": 5240,
      "Ġgi": 5241,
      "Ġtrend": 5242,
      "Ðµ": 5243,
      "Ġhopes": 5244,
      "Ġkur": 5245,
      "ita": 5246,
      "ette": 5247,
      "Ġexpansion": 5248,
      "Ġemails": 5249,
      "Ġvent": 5250,
      "Ġelimin": 5251,
      "Ġwear": 5252,
      "Ġattempts": 5253,
      "Ġscot": 5254,
      "Ġbureau": 5255,
      "ruption": 5256,
      "Ġministry": 5257,
      "Ġreli": 5258,
      "aa": 5259,
      "tim": 5260,
      "Ġstan": 5261,
      "Ġrising": 5262,
      "Ġtreated": 5263,
      "Ġ//": 5264,
      "Ġboss": 5265,
      "Ġedition": 5266,
      "Ġdipl": 5267,
      "Ġjour": 5268,
      "Ġbodies": 5269,
      "Ġguns": 5270,
      "Ġring": 5271,
      "Ġflood": 5272,
      "Ġauth": 5273,
      "Ġpractices": 5274,
      "Ġperman": 5275,
      "Ġdiss": 5276,
      "Ġocean": 5277,
      "Ġchristmas": 5278,
      "Ġtalked": 5279,
      "92": 5280,
      "Ġsession": 5281,
      "Ġargued": 5282,
      "Ġconfident": 5283,
      "Ġcolon": 5284,
      "Ġforg": 5285,
      "Ġvillage": 5286,
      "Ġcustomer": 5287,
      "Ġdisappoint": 5288,
      "Ġopposed": 5289,
      "illed": 5290,
      "Ġsubsequ": 5291,
      "Ġgather": 5292,
      "Ġrow": 5293,
      "Ġaffairs": 5294,
      "Ġjul": 5295,
      "Ġtas": 5296,
      ",'": 5297,
      "Ġatmosp": 5298,
      "Ġash": 5299,
      "Ġlinks": 5300,
      "Ġ2003": 5301,
      "Ġgaz": 5302,
      "Ġcert": 5303,
      "Ġpure": 5304,
      "sex": 5305,
      "Ġbuildings": 5306,
      "Ġessentially": 5307,
      "Ġdelay": 5308,
      "illa": 5309,
      "Ġclient": 5310,
      "Ġexplo": 5311,
      "Ġdismiss": 5312,
      "Ġconfig": 5313,
      "Ġpin": 5314,
      "rier": 5315,
      "essions": 5316,
      "Ġwarning": 5317,
      "Ġapproved": 5318,
      "west": 5319,
      "Ġwelcome": 5320,
      "Ġperspective": 5321,
      "46": 5322,
      "Ġhide": 5323,
      "Ġtournament": 5324,
      "lation": 5325,
      "abilities": 5326,
      "Ġdoctors": 5327,
      "mond": 5328,
      "Ġarticles": 5329,
      "Ġinjured": 5330,
      "Ġyout": 5331,
      "Ġexercise": 5332,
      "Ġconnected": 5333,
      "Ġshouldn": 5334,
      "iat": 5335,
      "Ġliqu": 5336,
      "Ġtalent": 5337,
      "Ġsharp": 5338,
      "Ġconfidence": 5339,
      "rd": 5340,
      "Ġdatab": 5341,
      "Ġphilosop": 5342,
      "Ġinstitutions": 5343,
      "Ġlawyer": 5344,
      "Ġdenied": 5345,
      "Ġmoon": 5346,
      "Ġviolent": 5347,
      "erved": 5348,
      "Ġreaders": 5349,
      "hered": 5350,
      "Ġadvice": 5351,
      "Ġresolution": 5352,
      "Ġmichigan": 5353,
      "Ġadmitted": 5354,
      "Ġanyway": 5355,
      "dis": 5356,
      "Ġstrange": 5357,
      "Ġproud": 5358,
      "Ġta": 5359,
      "Ġloved": 5360,
      "Ġoly": 5361,
      "Ġmarketing": 5362,
      "Ġmaterials": 5363,
      "Ġplayoff": 5364,
      "ipping": 5365,
      "Ġfacts": 5366,
      "Ġwrites": 5367,
      "tion": 5368,
      "Ġisis": 5369,
      "Ġmessages": 5370,
      "Ġegg": 5371,
      "Ġbike": 5372,
      "Ġmarried": 5373,
      "Ġstatements": 5374,
      "ivered": 5375,
      "Ġnobody": 5376,
      "Ġhistorical": 5377,
      "Ġradical": 5378,
      "ributed": 5379,
      "Ġstands": 5380,
      "Ġrestaurant": 5381,
      "ura": 5382,
      "olit": 5383,
      "Ġbare": 5384,
      "ipl": 5385,
      "Ġnewspaper": 5386,
      "Ġmountain": 5387,
      "Ġresc": 5388,
      "org": 5389,
      "âĪµ": 5390,
      "Ġalcohol": 5391,
      "52": 5392,
      "Ġstorm": 5393,
      "Ġtermin": 5394,
      "respond": 5395,
      ",âĢĻ": 5396,
      "Ġentertainment": 5397,
      "Ġsevere": 5398,
      "Ġactivists": 5399,
      "Ġprompt": 5400,
      "Ġpenn": 5401,
      "Ġfindings": 5402,
      "Ġnetworks": 5403,
      "Ġseattle": 5404,
      "Ġdeclared": 5405,
      "Ġvalley": 5406,
      "Ġsongs": 5407,
      "water": 5408,
      "Ġterrorist": 5409,
      "Ġfaces": 5410,
      "Ġcnn": 5411,
      "ternal": 5412,
      "Ġride": 5413,
      "Ġordered": 5414,
      "42": 5415,
      "wal": 5416,
      "sm": 5417,
      "Ġexperiences": 5418,
      "Ġancient": 5419,
      "Ġreturns": 5420,
      "Ġmotion": 5421,
      "Ġcapable": 5422,
      "Ġresponded": 5423,
      "inter": 5424,
      "Ġswed": 5425,
      "Ġincor": 5426,
      "Ġongoing": 5427,
      "Ġdebut": 5428,
      "inent": 5429,
      "Ġsuffered": 5430,
      "Ġoutput": 5431,
      "Ġpatient": 5432,
      "Ġimproved": 5433,
      "Ġwave": 5434,
      "Ġaccom": 5435,
      "Ġ1980": 5436,
      "Ġvirtual": 5437,
      "long": 5438,
      "dp": 5439,
      "Ġohio": 5440,
      "Ġreportedly": 5441,
      "Ġanalyst": 5442,
      "Ġireland": 5443,
      "Ġinvestors": 5444,
      "Ġolymp": 5445,
      "Ġenh": 5446,
      "],": 5447,
      "Ġgang": 5448,
      "Ġexplore": 5449,
      "iger": 5450,
      "Ġlabel": 5451,
      "Ġaband": 5452,
      "ugg": 5453,
      "Ġdoub": 5454,
      "Ġpublicly": 5455,
      "aped": 5456,
      "Ġapplied": 5457,
      "standing": 5458,
      "Ġpic": 5459,
      "Ġremind": 5460,
      "ador": 5461,
      "Ġcircumst": 5462,
      "Ġplot": 5463,
      "Ġphotograph": 5464,
      "abled": 5465,
      "Ġeric": 5466,
      "Ġourselves": 5467,
      "ano": 5468,
      "Ġobjects": 5469,
      "Ġcoffee": 5470,
      "!!!!": 5471,
      "Ġleaves": 5472,
      "Ġol": 5473,
      "Ġwake": 5474,
      "Ġwaste": 5475,
      "Ġconfirm": 5476,
      "Ġbru": 5477,
      "eds": 5478,
      "lla": 5479,
      "####": 5480,
      "ales": 5481,
      "Ġwarm": 5482,
      "Ġfraud": 5483,
      "Ġpassen": 5484,
      "Ġeffectively": 5485,
      "employ": 5486,
      "Ġromney": 5487,
      "Ġyoutube": 5488,
      "Ġaside": 5489,
      "Ġvolume": 5490,
      "Ġaccompl": 5491,
      "Ġinput": 5492,
      "Ġdistribution": 5493,
      "Ġdim": 5494,
      "Ġpod": 5495,
      "Ġprohib": 5496,
      "Ġcampus": 5497,
      "Ġairport": 5498,
      "ilty": 5499,
      "Ġwins": 5500,
      "Ġ36": 5501,
      "Ġemphas": 5502,
      "Ġdesire": 5503,
      "Ġps": 5504,
      "Ġhou": 5505,
      "called": 5506,
      "hs": 5507,
      "isters": 5508,
      "Ġfestival": 5509,
      "53": 5510,
      "Ġbeach": 5511,
      "Ġcauses": 5512,
      "Ġsubstant": 5513,
      "rid": 5514,
      "ani": 5515,
      "Ġfilled": 5516,
      "Ġdelivered": 5517,
      "Ġfaced": 5518,
      "Ġtemperature": 5519,
      "Ġforum": 5520,
      "Ġthread": 5521,
      "Ġflash": 5522,
      "Ġmuslims": 5523,
      "Ġappropriate": 5524,
      "level": 5525,
      "Ġroughly": 5526,
      "Ġmanufacture": 5527,
      "aints": 5528,
      "Ġsoviet": 5529,
      "Ġanonym": 5530,
      "Ġfranch": 5531,
      "Ġyeah": 5532,
      "Ġbear": 5533,
      "Ġsitu": 5534,
      "Ġpicked": 5535,
      "Ġcriticism": 5536,
      "Ġlegit": 5537,
      "Ġcurrency": 5538,
      "Ġexplains": 5539,
      "Ġaccepted": 5540,
      "Ġcorrespond": 5541,
      "Ġcontains": 5542,
      "Ġbutton": 5543,
      "=\"": 5544,
      "gia": 5545,
      "tc": 5546,
      "Ġbaseball": 5547,
      "Ġparticipants": 5548,
      "Ġlam": 5549,
      "Ġhardware": 5550,
      "Ġcos": 5551,
      "Ġmissed": 5552,
      "gas": 5553,
      "Ġmedicine": 5554,
      "Ġapproxim": 5555,
      "Ĥ¬": 5556,
      "Ġplane": 5557,
      "Ġexplan": 5558,
      "Ġdrivers": 5559,
      "Ġric": 5560,
      "Ġrealize": 5561,
      "Ġentry": 5562,
      "Ġba": 5563,
      "unte": 5564,
      "Ġjam": 5565,
      "Ġig": 5566,
      "Ġargue": 5567,
      "Ġdrink": 5568,
      "rey": 5569,
      "Ġbrazil": 5570,
      "rich": 5571,
      "Ġquarterback": 5572,
      "esters": 5573,
      "mates": 5574,
      "Ġincreases": 5575,
      "cr": 5576,
      "Ġafghanistan": 5577,
      "ansas": 5578,
      "Ġdeclined": 5579,
      "Ġpipe": 5580,
      "Ġphen": 5581,
      "Ġsatisf": 5582,
      "Ġjersey": 5583,
      "Ġdiplom": 5584,
      "Ġbarack": 5585,
      "Ġpopul": 5586,
      "ias": 5587,
      "Ġbegins": 5588,
      "Ġdepth": 5589,
      "ilit": 5590,
      "Ġallegations": 5591,
      "ricult": 5592,
      "ounded": 5593,
      "Ġcritics": 5594,
      "illance": 5595,
      "Ġsteel": 5596,
      "Ġmos": 5597,
      "43": 5598,
      "Ġnearby": 5599,
      "Ġshots": 5600,
      "Ġagend": 5601,
      "atures": 5602,
      "Ġtotally": 5603,
      "Ġadds": 5604,
      "Ġassistant": 5605,
      "Ġwid": 5606,
      "Ġchampion": 5607,
      "Ġpatri": 5608,
      "Ġessential": 5609,
      "Ġwithd": 5610,
      "Ġinjuries": 5611,
      "Ġreuters": 5612,
      "nic": 5613,
      "Ġthinks": 5614,
      "arters": 5615,
      "Ġcolumb": 5616,
      "Ġcruc": 5617,
      "agers": 5618,
      "Ġ33": 5619,
      "Ġguilty": 5620,
      "ancing": 5621,
      "rison": 5622,
      "chester": 5623,
      "Ġcontest": 5624,
      "ionally": 5625,
      "Ġschedule": 5626,
      "Ġevil": 5627,
      "Ġfashion": 5628,
      "56": 5629,
      "cution": 5630,
      "ache": 5631,
      "Ġblow": 5632,
      "Ġrally": 5633,
      "Ġclasses": 5634,
      "Ġhonor": 5635,
      "Ġempt": 5636,
      "Ġlg": 5637,
      "Ġannouncement": 5638,
      "Ġtiny": 5639,
      "Ġparam": 5640,
      "athan": 5641,
      "Ġfacility": 5642,
      "Ġ37": 5643,
      "Ġstores": 5644,
      "ey": 5645,
      "game": 5646,
      "Ġchain": 5647,
      "Ġfinance": 5648,
      "Ġdesk": 5649,
      "Ġfunctions": 5650,
      "Ġmoments": 5651,
      "Ġstream": 5652,
      "Ġukraine": 5653,
      "Ġindex": 5654,
      "Ġstephen": 5655,
      "Ġsi": 5656,
      "law": 5657,
      "order": 5658,
      "Ġagricult": 5659,
      "Ġinqu": 5660,
      "Ġkorean": 5661,
      "Ġsharing": 5662,
      "Ġcombination": 5663,
      "Ġtear": 5664,
      "Ġlawsuit": 5665,
      "bell": 5666,
      "Ġdeputy": 5667,
      "vis": 5668,
      "Ġsuicide": 5669,
      "Ã¶": 5670,
      "Ġmoves": 5671,
      "Ġterrorism": 5672,
      "Ġfollows": 5673,
      "Ġcomic": 5674,
      "Ġhung": 5675,
      "Ġadam": 5676,
      "Ġah": 5677,
      "Ġdefence": 5678,
      "Ġdavis": 5679,
      "Ġgolden": 5680,
      "Ġinterpret": 5681,
      "Ġartists": 5682,
      "Ġkingdom": 5683,
      "Ġregardless": 5684,
      "Ġheads": 5685,
      "usal": 5686,
      "Ġsurveillance": 5687,
      "Ġperformed": 5688,
      "Ġconsequences": 5689,
      "Ġsister": 5690,
      "Ġacting": 5691,
      "lete": 5692,
      "Ġcrazy": 5693,
      "Ġvolunte": 5694,
      "Ġconsistent": 5695,
      "Ġ38": 5696,
      "Ġpromise": 5697,
      "Ġexistence": 5698,
      "Ġunknown": 5699,
      "style": 5700,
      "Ġyounger": 5701,
      "Ġlisted": 5702,
      "Ġbasket": 5703,
      "Ġmeat": 5704,
      "Ġiphone": 5705,
      "Ġacts": 5706,
      "Ġphase": 5707,
      "Ġrepresents": 5708,
      "Ġtort": 5709,
      "Ġscheduled": 5710,
      "Ġcommunication": 5711,
      "Ġfeatured": 5712,
      "Ġexpression": 5713,
      "Ġnecessarily": 5714,
      "Ġteachers": 5715,
      "ÃŃ": 5716,
      "Ġbuying": 5717,
      "Ġsplit": 5718,
      "Ġluc": 5719,
      "Ġshares": 5720,
      "Ġknowing": 5721,
      "who": 5722,
      "Ġsweet": 5723,
      "Ġtheat": 5724,
      "Ġtan": 5725,
      "Ġcycle": 5726,
      "Ġsymbol": 5727,
      "Ġwatched": 5728,
      "burg": 5729,
      "Ġsuddenly": 5730,
      "Ġregulations": 5731,
      "Ġoffense": 5732,
      "Ġholly": 5733,
      "Ġstood": 5734,
      "orders": 5735,
      "Ġfifth": 5736,
      "Ġcham": 5737,
      "Ġbehavi": 5738,
      "Ġsurprised": 5739,
      "Ġlaugh": 5740,
      "nell": 5741,
      "Ġthreats": 5742,
      "Ġentered": 5743,
      "Ġital": 5744,
      "Ġwarned": 5745,
      "Ã¼": 5746,
      "wa": 5747,
      "Ġlicense": 5748,
      "Ġdecre": 5749,
      "Ġresistance": 5750,
      "Ġharv": 5751,
      "Ġsaudi": 5752,
      "Ġsought": 5753,
      "Ġpled": 5754,
      "Ġjourney": 5755,
      "Ġtreas": 5756,
      "Ġ300": 5757,
      "Ġdeaths": 5758,
      "Ġfavour": 5759,
      "fire": 5760,
      "04": 5761,
      "cho": 5762,
      "reen": 5763,
      "Ġlad": 5764,
      "Ġvictor": 5765,
      "Ġsight": 5766,
      "irty": 5767,
      "Ġshif": 5768,
      "Ġfewer": 5769,
      "Ġfairly": 5770,
      "Ġbattery": 5771,
      "stood": 5772,
      "inet": 5773,
      "ooking": 5774,
      "Ġcolleagues": 5775,
      "Ġintr": 5776,
      "Ġauthors": 5777,
      "Ġreco": 5778,
      "Ġsick": 5779,
      "acle": 5780,
      "Ġoverw": 5781,
      "icing": 5782,
      "Ġ2002": 5783,
      "Ġcheap": 5784,
      "Ġanywhere": 5785,
      "uster": 5786,
      "ike": 5787,
      "acks": 5788,
      "Ġariz": 5789,
      "Ġaudio": 5790,
      "Ġsucceed": 5791,
      "Ġdiscussed": 5792,
      "ucks": 5793,
      "Ġble": 5794,
      "born": 5795,
      "sing": 5796,
      "Ġinstru": 5797,
      "Ġinspired": 5798,
      "Ġexhib": 5799,
      "roit": 5800,
      "certain": 5801,
      "iest": 5802,
      "ogue": 5803,
      "Ġjr": 5804,
      "Ġsym": 5805,
      "Ġau": 5806,
      "hus": 5807,
      "Ġhousehold": 5808,
      "Ġuncle": 5809,
      "Ġadults": 5810,
      "Ġbrings": 5811,
      "Ġwilson": 5812,
      "Ġsomewhat": 5813,
      "Ġunlikely": 5814,
      "Ġell": 5815,
      "Ġhouston": 5816,
      "Ġkevin": 5817,
      "59": 5818,
      "Ġpushed": 5819,
      "post": 5820,
      "Ġsample": 5821,
      "66": 5822,
      "Ġjews": 5823,
      "Ġrelevant": 5824,
      "Ġheavily": 5825,
      "Ġreceiving": 5826,
      "Ġbills": 5827,
      "Ġdogs": 5828,
      "Ġrecon": 5829,
      "Ġhoping": 5830,
      "Ġsuffering": 5831,
      "iver": 5832,
      "Ġselection": 5833,
      "Ġvoc": 5834,
      "Ġimportance": 5835,
      "Ġconstant": 5836,
      "Ġfantasy": 5837,
      "pan": 5838,
      "Ġprotests": 5839,
      "Ġconclusion": 5840,
      "eland": 5841,
      "illy": 5842,
      "Ġ48": 5843,
      "Ġpersonally": 5844,
      "inder": 5845,
      "osition": 5846,
      "Ġrape": 5847,
      "Ġasia": 5848,
      "Ġpregn": 5849,
      "Ġtrick": 5850,
      "oral": 5851,
      "Ġfasc": 5852,
      "âĢ²": 5853,
      "Ġwinner": 5854,
      "Ġdivers": 5855,
      "Ġgrown": 5856,
      "Ġlies": 5857,
      "tle": 5858,
      "Ġpremier": 5859,
      "Ġgaming": 5860,
      "Ġimmediate": 5861,
      "odes": 5862,
      "Ġformat": 5863,
      "Ġisol": 5864,
      "vi": 5865,
      "Ġdry": 5866,
      "Ġholds": 5867,
      "Ġgalax": 5868,
      "Ġintention": 5869,
      "Ġupper": 5870,
      "Ġversions": 5871,
      "Ġscored": 5872,
      "Ġorders": 5873,
      "Ġrig": 5874,
      "Ġengineering": 5875,
      "Ġnba": 5876,
      "ja": 5877,
      "Ġfemin": 5878,
      "print": 5879,
      "Ġreplaced": 5880,
      "weight": 5881,
      "Ġfundamental": 5882,
      "41": 5883,
      "Ġprote": 5884,
      "Ġrecall": 5885,
      "Ġdetailed": 5886,
      "Ġcolorado": 5887,
      "Ġbell": 5888,
      "Ġembr": 5889,
      "Ġfrequently": 5890,
      "mad": 5891,
      "lands": 5892,
      "Ġdiscover": 5893,
      "78": 5894,
      "Ġsustain": 5895,
      "Ġlegend": 5896,
      "Ġkil": 5897,
      "Ġtargets": 5898,
      "Ġcharles": 5899,
      "Ġ=>": 5900,
      "Ġroman": 5901,
      "Ġacknowled": 5902,
      "Ġfab": 5903,
      "Ġshortly": 5904,
      "Ġallegedly": 5905,
      "Ġexcellent": 5906,
      "Ġintent": 5907,
      "foot": 5908,
      "Ġterritory": 5909,
      "Ġhyd": 5910,
      "Ġefficient": 5911,
      "Ġcycl": 5912,
      "chen": 5913,
      "Ġcrash": 5914,
      "look": 5915,
      "Ġdeveloper": 5916,
      "Ġproperties": 5917,
      "inals": 5918,
      "09": 5919,
      "era": 5920,
      "aug": 5921,
      "ua": 5922,
      "orted": 5923,
      "Ġdefined": 5924,
      "Ġalongside": 5925,
      "Ġagenda": 5926,
      "Ġnasa": 5927,
      "Ġharder": 5928,
      "stone": 5929,
      "Ġcolumn": 5930,
      "Ġencourage": 5931,
      "Ġopposite": 5932,
      "Ġputin": 5933,
      "Ġbrad": 5934,
      "nam": 5935,
      "Ġtechnologies": 5936,
      "Ġliterally": 5937,
      "Ġabortion": 5938,
      "Ġbom": 5939,
      "acc": 5940,
      "Ġpoly": 5941,
      "va": 5942,
      "Ġmaximum": 5943,
      "iro": 5944,
      "Ġremote": 5945,
      "gor": 5946,
      "Ġalive": 5947,
      "Ġmyth": 5948,
      "iences": 5949,
      "Ġrequirements": 5950,
      "Ġpleas": 5951,
      "Ġbang": 5952,
      "Ġcia": 5953,
      "Ġsees": 5954,
      "Ġapproximately": 5955,
      "ensus": 5956,
      "Ġcha": 5957,
      "Ġeating": 5958,
      "Ġsimpl": 5959,
      "iques": 5960,
      "esh": 5961,
      "Ġflav": 5962,
      "::": 5963,
      "Ġunus": 5964,
      "isms": 5965,
      "verty": 5966,
      "Ġgap": 5967,
      "ooth": 5968,
      "Ġdc": 5969,
      "Ġsigning": 5970,
      "Ġcatholic": 5971,
      "Ġserving": 5972,
      "Ġmagn": 5973,
      "Ġford": 5974,
      "Ġcompetitive": 5975,
      "Ġmiller": 5976,
      "54": 5977,
      "Ġsentence": 5978,
      "urning": 5979,
      "Ġemotional": 5980,
      "Ġattempted": 5981,
      "Ġrelationships": 5982,
      "Ġtheme": 5983,
      "58": 5984,
      "Ġcruz": 5985,
      "erves": 5986,
      "Ġpassion": 5987,
      "Ġdecline": 5988,
      "Ġpoverty": 5989,
      "Ġactor": 5990,
      "rist": 5991,
      "Ġneut": 5992,
      "Ġdedicated": 5993,
      "Ġmanner": 5994,
      "Ġpartnership": 5995,
      "Ġchapter": 5996,
      "Ġpushing": 5997,
      "Ġmouth": 5998,
      "Ġtransm": 5999,
      "Ġflex": 6000,
      "Ġcrypt": 6001,
      "Ġowned": 6002,
      "Ġprovince": 6003,
      "Ġdaniel": 6004,
      "now": 6005,
      "urally": 6006,
      "Ġassets": 6007,
      "Ġclosely": 6008,
      "Ġassembly": 6009,
      "rog": 6010,
      "Ġsomehow": 6011,
      "Ġreward": 6012,
      "Ġextent": 6013,
      "Ġlatter": 6014,
      "Ġformed": 6015,
      "Ġcyber": 6016,
      "Ġsolutions": 6017,
      "Ġdescribe": 6018,
      "Ġfu": 6019,
      "sters": 6020,
      "Ġwing": 6021,
      "vey": 6022,
      "Ġcircumstances": 6023,
      "ole": 6024,
      "Ġcarrying": 6025,
      "Ġopponents": 6026,
      "Ġwheel": 6027,
      "olve": 6028,
      "Ġ49": 6029,
      "Ġdetroit": 6030,
      "Ġreferred": 6031,
      "list": 6032,
      "ications": 6033,
      "dri": 6034,
      "Ġreporter": 6035,
      "Ġprotesters": 6036,
      "Ġopponent": 6037,
      "Ġdealing": 6038,
      "06": 6039,
      "Ġscand": 6040,
      "Ġreput": 6041,
      "Ġearned": 6042,
      "Ġinstitution": 6043,
      "Ġproof": 6044,
      "Ġtall": 6045,
      "Ġspin": 6046,
      "ologist": 6047,
      "Ġmp": 6048,
      "Ġjesus": 6049,
      "Ġadapt": 6050,
      "Ġjord": 6051,
      "Ġdub": 6052,
      "Ġupcoming": 6053,
      "Ġarizona": 6054,
      "kel": 6055,
      "Ġ34": 6056,
      "Ġrisks": 6057,
      "Ġretire": 6058,
      "Ġticket": 6059,
      "Ġhoc": 6060,
      "Ġstim": 6061,
      "Ġkinds": 6062,
      "Ġdiagn": 6063,
      "Ġcommitment": 6064,
      "ocket": 6065,
      "Ġtay": 6066,
      "Ġusual": 6067,
      "Ġcausing": 6068,
      "Ġallies": 6069,
      "Ġfields": 6070,
      "Ġtargeted": 6071,
      "',": 6072,
      "some": 6073,
      "Ġmainstream": 6074,
      "Ġsab": 6075,
      "Ġslowly": 6076,
      "Ġextended": 6077,
      "Ġpalestinian": 6078,
      "Ġtrading": 6079,
      "Ġchat": 6080,
      "Ġnomine": 6081,
      "rated": 6082,
      "Ġ1970": 6083,
      "Ġconver": 6084,
      "awa": 6085,
      "Ġscar": 6086,
      "Ġdollar": 6087,
      "Ġmarg": 6088,
      "Ġlew": 6089,
      "Ġunemploy": 6090,
      "atell": 6091,
      "Ġflying": 6092,
      "rehens": 6093,
      "Ġrepeatedly": 6094,
      "Ġdna": 6095,
      "Ġdestroyed": 6096,
      "Ġemployment": 6097,
      "Ġprecise": 6098,
      "Ġdeeply": 6099,
      "Ġcategory": 6100,
      "Ġcontroversial": 6101,
      "Ġapproval": 6102,
      "cers": 6103,
      "Ġcongressional": 6104,
      "Ġdress": 6105,
      "Ġtea": 6106,
      "Ġescape": 6107,
      "itor": 6108,
      "Ġcannab": 6109,
      "Ġsending": 6110,
      "Ġelite": 6111,
      "Ã³": 6112,
      "Ġtopic": 6113,
      "Ġbench": 6114,
      "Ġbrian": 6115,
      "Ġjournalists": 6116,
      "Ġteacher": 6117,
      "adel": 6118,
      "Ġforth": 6119,
      "Ġted": 6120,
      "Ġcomfortable": 6121,
      "ensity": 6122,
      "Ġscheme": 6123,
      "Ġcable": 6124,
      "Ġwalked": 6125,
      "Ġdeals": 6126,
      "Ġrealized": 6127,
      "Ġimmigrants": 6128,
      "iveness": 6129,
      "Ġstruck": 6130,
      "Ġdall": 6131,
      "iber": 6132,
      "nor": 6133,
      "Ġdatabase": 6134,
      "apse": 6135,
      "Ġoverwhel": 6136,
      "Ġletters": 6137,
      "Ġprotected": 6138,
      "Ġchick": 6139,
      "Ġsupports": 6140,
      "azi": 6141,
      "Ġlocations": 6142,
      "Ġliver": 6143,
      "Ġsubsid": 6144,
      "Ġroot": 6145,
      "Ġdeck": 6146,
      "Ġarguments": 6147,
      "Ġhollywood": 6148,
      "Ġtrees": 6149,
      "uable": 6150,
      "asp": 6151,
      "Ġphenomen": 6152,
      "Ġwage": 6153,
      "rors": 6154,
      "Ġtap": 6155,
      "Ġsignal": 6156,
      "Ġselected": 6157,
      "Ġrequests": 6158,
      "Ġfees": 6159,
      "Ġsole": 6160,
      "pool": 6161,
      "Ġrod": 6162,
      "Ġzeal": 6163,
      "vention": 6164,
      "Ġblame": 6165,
      "Ġgm": 6166,
      "Ġnoticed": 6167,
      "Ġdirected": 6168,
      "cal": 6169,
      "Ġfolks": 6170,
      "Ġpromised": 6171,
      "agan": 6172,
      "Ġraw": 6173,
      "Ġawes": 6174,
      "american": 6175,
      "Ġitaly": 6176,
      "Ġcomparison": 6177,
      "rate": 6178,
      "Ġtypical": 6179,
      "Ġrefugees": 6180,
      "Ġiv": 6181,
      "ez": 6182,
      "Ġstretch": 6183,
      "oom": 6184,
      "Ġsurrounding": 6185,
      "ati": 6186,
      "Ġdre": 6187,
      "Ġrab": 6188,
      "inations": 6189,
      "iments": 6190,
      "Ġuniversal": 6191,
      "Ġdepending": 6192,
      "fall": 6193,
      "iples": 6194,
      "Ġremark": 6195,
      "rect": 6196,
      "Ġemissions": 6197,
      "Ġinfo": 6198,
      "Ġdowntown": 6199,
      "Ġadvertising": 6200,
      "Ġproperly": 6201,
      "Ġconservatives": 6202,
      "Ġhouses": 6203,
      "Ġworldwide": 6204,
      "yes": 6205,
      "Ġsomewhere": 6206,
      "Ġfalling": 6207,
      "Ġtested": 6208,
      "Ġcutting": 6209,
      "Ġfighters": 6210,
      "Ġmatches": 6211,
      "rum": 6212,
      "Ġintellect": 6213,
      "Ġobserved": 6214,
      "Ġtab": 6215,
      "from": 6216,
      "Ġpaint": 6217,
      "Ġdefeat": 6218,
      "Ġfranchise": 6219,
      "icul": 6220,
      "oking": 6221,
      "cking": 6222,
      "Ġcourts": 6223,
      "Ġnarrow": 6224,
      "gery": 6225,
      "Ġdad": 6226,
      "Ġcontem": 6227,
      "fo": 6228,
      "Ġanx": 6229,
      "Ġrent": 6230,
      "Ġmixed": 6231,
      "phy": 6232,
      "Ġelsewhere": 6233,
      "Ġempty": 6234,
      "Ġregions": 6235,
      "Ġsir": 6236,
      "Ġstatistics": 6237,
      "Ġgoods": 6238,
      "Ġstrongly": 6239,
      "ĠÃĹ": 6240,
      "Ġoak": 6241,
      "Ġexciting": 6242,
      "Ġax": 6243,
      "Ġfounder": 6244,
      "88": 6245,
      "Ġblind": 6246,
      "Ġemployee": 6247,
      "05": 6248,
      "xual": 6249,
      "arks": 6250,
      "Ġmedium": 6251,
      "osen": 6252,
      "imp": 6253,
      "Ġhits": 6254,
      "Ġmerely": 6255,
      "Ġdisag": 6256,
      "Ġmiami": 6257,
      "Ġacademy": 6258,
      "Ġempire": 6259,
      "Ġmistake": 6260,
      "Ġembar": 6261,
      "Ġimpressive": 6262,
      "Ġirish": 6263,
      "Ġfacilities": 6264,
      "Ġgy": 6265,
      "Ġsom": 6266,
      "cript": 6267,
      "oration": 6268,
      "icious": 6269,
      "Ġmachines": 6270,
      "photo": 6271,
      "Ġbunch": 6272,
      "07": 6273,
      "Ġworried": 6274,
      "Ġoblig": 6275,
      "Ġlimits": 6276,
      "Ġwriters": 6277,
      "dem": 6278,
      "Ġprofit": 6279,
      "Ġpolls": 6280,
      "Ġrecovery": 6281,
      "Ġassume": 6282,
      "Ġdefinition": 6283,
      "Ġplug": 6284,
      "Ġcarl": 6285,
      "Ġinvolving": 6286,
      "Ġcoc": 6287,
      "Ġfeedback": 6288,
      "Ġtower": 6289,
      "Ġpromote": 6290,
      "Ġextension": 6291,
      "amin": 6292,
      "Ġarray": 6293,
      "wan": 6294,
      "pu": 6295,
      "Ġvacc": 6296,
      "Ġlikes": 6297,
      "Ġrepresentative": 6298,
      "%)": 6299,
      "Ġtel": 6300,
      "Ġelectronic": 6301,
      "Ġputs": 6302,
      "Ġanswers": 6303,
      "ded": 6304,
      "Ġsomebody": 6305,
      "Ġthor": 6306,
      "Ġangry": 6307,
      "Ġending": 6308,
      "lock": 6309,
      "Ġsalt": 6310,
      "Ġray": 6311,
      ">>": 6312,
      "wart": 6313,
      "Ġobtained": 6314,
      "Ġattacked": 6315,
      "Ġbrothers": 6316,
      "Ġmoore": 6317,
      "Ġgeorgia": 6318,
      "woman": 6319,
      "Ġdeleg": 6320,
      "Ġgranted": 6321,
      "Ġjordan": 6322,
      "Ġdrew": 6323,
      "Ġhidden": 6324,
      "world": 6325,
      "Ġlyn": 6326,
      "Ġkelly": 6327,
      "anes": 6328,
      "Ġcontrolled": 6329,
      "Ġnavy": 6330,
      "Ġcounsel": 6331,
      "Ġideal": 6332,
      "Ġpilot": 6333,
      "Ġrating": 6334,
      "Ġpayment": 6335,
      "Ġrecognize": 6336,
      "Ġstem": 6337,
      "Ġduty": 6338,
      "Ġuncon": 6339,
      "Ġspeaker": 6340,
      "Ġchose": 6341,
      "Ġtruck": 6342,
      "Ġencoun": 6343,
      "stit": 6344,
      "Ġconscious": 6345,
      "Ġalliance": 6346,
      "Ġweird": 6347,
      "Ġdescription": 6348,
      "Ġtransportation": 6349,
      "Ġawesome": 6350,
      "Ġtony": 6351,
      "Ġjosh": 6352,
      "Ġale": 6353,
      "Ġestate": 6354,
      "ashing": 6355,
      "lyn": 6356,
      "after": 6357,
      "Ġdecent": 6358,
      "every": 6359,
      "Ġsoul": 6360,
      "Ġretain": 6361,
      "Ġom": 6362,
      "Ġenterpr": 6363,
      "Ġparking": 6364,
      "Ġdesper": 6365,
      "Ġminority": 6366,
      "Ġindependence": 6367,
      "Ġlawyers": 6368,
      "thy": 6369,
      "Ġunderstood": 6370,
      "Ġequival": 6371,
      "Ġharass": 6372,
      "Ġturk": 6373,
      "Ġveget": 6374,
      "ours": 6375,
      "Ġaz": 6376,
      "emen": 6377,
      "Ġhockey": 6378,
      "Ġexposed": 6379,
      "Ġarts": 6380,
      "Ġsatell": 6381,
      "inson": 6382,
      "Ġreturning": 6383,
      "ï¿½ï¿½": 6384,
      "gender": 6385,
      "Ġbath": 6386,
      "tes": 6387,
      "Ġdriven": 6388,
      "Ġtherap": 6389,
      "Ġcomprom": 6390,
      "Ġpurposes": 6391,
      "Ġcondem": 6392,
      "Ġdallas": 6393,
      "ingu": 6394,
      "Ġaspects": 6395,
      "Ġpump": 6396,
      "Ġenemies": 6397,
      "edia": 6398,
      "Ġacademic": 6399,
      "Ġprogramming": 6400,
      "Ġassistance": 6401,
      "unction": 6402,
      "Ġkh": 6403,
      "Ġtank": 6404,
      "Ġcomponents": 6405,
      "Ġspanish": 6406,
      "Ġstronger": 6407,
      "osis": 6408,
      "cus": 6409,
      "Ġreserve": 6410,
      "Ġpermanent": 6411,
      "51": 6412,
      "Ġfake": 6413,
      "Ġtranspa": 6414,
      "Ġextract": 6415,
      "Ġjur": 6416,
      "Ġkir": 6417,
      "Ġpunish": 6418,
      "lar": 6419,
      "Ġfinds": 6420,
      "Ġga": 6421,
      "Ġrival": 6422,
      "Ġyellow": 6423,
      "Ġofficially": 6424,
      "Ġreveal": 6425,
      "ec": 6426,
      "asts": 6427,
      "spe": 6428,
      "Ġow": 6429,
      "Ġoutcome": 6430,
      "luding": 6431,
      "Ġsubscribe": 6432,
      "lick": 6433,
      "Ġcontinuing": 6434,
      ".\"[": 6435,
      "Ġjoy": 6436,
      "Ġchosen": 6437,
      "Ġqueen": 6438,
      "Ġdrinking": 6439,
      "Ġmeetings": 6440,
      "Ġamounts": 6441,
      "Ġelectricity": 6442,
      "Ġsessions": 6443,
      "Ġblocks": 6444,
      "Ġincredible": 6445,
      "Ġextensive": 6446,
      "âĢĻ.": 6447,
      "Ġbranch": 6448,
      "Ġchoices": 6449,
      "Ġauto": 6450,
      "Ġpir": 6451,
      "dit": 6452,
      "Ġmanip": 6453,
      "type": 6454,
      "Ġprimarily": 6455,
      "izz": 6456,
      "Ġplastic": 6457,
      "Ġodd": 6458,
      "Ġavenue": 6459,
      "Ġdoz": 6460,
      "Ġ75": 6461,
      "icial": 6462,
      "ooks": 6463,
      "Ġsorry": 6464,
      "Ġrush": 6465,
      "rimination": 6466,
      "Ġclaiming": 6467,
      "ĠâĪ": 6468,
      "Ġestimates": 6469,
      "Ġrepresentatives": 6470,
      "Ġruled": 6471,
      "mann": 6472,
      "Ġchances": 6473,
      "Ð¸": 6474,
      "Ġgrass": 6475,
      "Ġties": 6476,
      "Ġcontributed": 6477,
      "Ġcaptured": 6478,
      "Ġcapture": 6479,
      "Ġasian": 6480,
      "Ġhabit": 6481,
      "Ġscotland": 6482,
      "bling": 6483,
      "Ġtip": 6484,
      "Ġpayments": 6485,
      "sch": 6486,
      "itarian": 6487,
      "Ġgalaxy": 6488,
      "Ġshield": 6489,
      "sea": 6490,
      "Ġregister": 6491,
      "raid": 6492,
      "dog": 6493,
      "onom": 6494,
      "Ġreasonable": 6495,
      "eline": 6496,
      "Ġhind": 6497,
      "ceived": 6498,
      "iciency": 6499,
      "Ġcomics": 6500,
      "itar": 6501,
      "Ġnhl": 6502,
      "Ġincredibly": 6503,
      "Ġrick": 6504,
      "Ġpurs": 6505,
      "Ġultimate": 6506,
      "Ġveteran": 6507,
      "Ġrif": 6508,
      "Ġinitiative": 6509,
      "rer": 6510,
      "Ġdisney": 6511,
      "Ġfred": 6512,
      "Ġdur": 6513,
      "Ġjac": 6514,
      "Ġproducer": 6515,
      "alf": 6516,
      "Ġbrowser": 6517,
      "Ġenthus": 6518,
      "chain": 6519,
      "Ġminnes": 6520,
      "Ġdrawn": 6521,
      "86": 6522,
      "friend": 6523,
      "Ġnewly": 6524,
      "Ġatmosphere": 6525,
      "Ġracial": 6526,
      "Ġ39": 6527,
      "Ġraising": 6528,
      "Ġprogressive": 6529,
      "ht": 6530,
      "ĠÎ": 6531,
      "77": 6532,
      "Ġconstantly": 6533,
      "fig": 6534,
      "celer": 6535,
      "Ġrelief": 6536,
      "Ġcontrols": 6537,
      "Ġgotten": 6538,
      "Ġdemands": 6539,
      "Ġshadow": 6540,
      "Ġbasketball": 6541,
      "Ġexists": 6542,
      "Ġconspir": 6543,
      "Ġregularly": 6544,
      "Ġfunny": 6545,
      "Ġlawmakers": 6546,
      "Ġterrible": 6547,
      "Ġresulting": 6548,
      "Ġinsight": 6549,
      "ographic": 6550,
      "Ġthreatened": 6551,
      "Ġtickets": 6552,
      "Â°": 6553,
      "Ġincl": 6554,
      "Ġsoph": 6555,
      "Ġcree": 6556,
      "Ġitalian": 6557,
      "Ġcrucial": 6558,
      "tering": 6559,
      "elect": 6560,
      "Ġapartment": 6561,
      "Ġloan": 6562,
      "Ġori": 6563,
      "owa": 6564,
      "tv": 6565,
      "Ġgenerate": 6566,
      "anged": 6567,
      "Ġinspir": 6568,
      "Ġenable": 6569,
      "Ġdiscovery": 6570,
      "mat": 6571,
      "fast": 6572,
      "gb": 6573,
      "Ġnarrative": 6574,
      "Ġextrem": 6575,
      "Ġsituations": 6576,
      "Ġnbc": 6577,
      "Ġdistinct": 6578,
      "intend": 6579,
      "Ġrecording": 6580,
      "Ġregistered": 6581,
      "bro": 6582,
      "Ġtaste": 6583,
      "Ġcoordin": 6584,
      "alle": 6585,
      "Ġanymore": 6586,
      "Ġ00": 6587,
      "Ġworker": 6588,
      "Ġseats": 6589,
      "ye": 6590,
      "Ġrobot": 6591,
      "ora": 6592,
      "Ġokay": 6593,
      "Ġhay": 6594,
      "Ġpenalty": 6595,
      "Ġreferences": 6596,
      "Ġcompens": 6597,
      "essed": 6598,
      "Ġlights": 6599,
      "irect": 6600,
      "isan": 6601,
      "Ġrejected": 6602,
      "Ġpace": 6603,
      "Ġstab": 6604,
      "Ġdozen": 6605,
      "Ġkeeps": 6606,
      "eman": 6607,
      "Ġconven": 6608,
      "ication": 6609,
      "Ġminnesota": 6610,
      "Ġprize": 6611,
      "Ġorganized": 6612,
      "people": 6613,
      "Ġeb": 6614,
      "ni": 6615,
      "Ġpul": 6616,
      "Ġprinciples": 6617,
      "Ġsugar": 6618,
      "phia": 6619,
      "even": 6620,
      "Ġconstitutional": 6621,
      "Ġexcess": 6622,
      "Ġalien": 6623,
      "Ġgate": 6624,
      "Ġdepression": 6625,
      "Ġroutine": 6626,
      "Ġexplanation": 6627,
      "Ġbrut": 6628,
      "Ġhistoric": 6629,
      "ĠâĢĻ": 6630,
      "Ġillustr": 6631,
      "Ġmarsh": 6632,
      "inity": 6633,
      "Ġaccurate": 6634,
      "Ġteaching": 6635,
      "Ġperfectly": 6636,
      "Ġak": 6637,
      "aine": 6638,
      "rage": 6639,
      "Ġbuck": 6640,
      "Ġrecip": 6641,
      "Ġ42": 6642,
      "08": 6643,
      "Ġengaged": 6644,
      "Ġcitizen": 6645,
      "Ġaggressive": 6646,
      "Ġcomplaint": 6647,
      "Ġtwenty": 6648,
      "Ġdozens": 6649,
      "Ġdegrees": 6650,
      "consin": 6651,
      "Ġroster": 6652,
      "Ġsympt": 6653,
      "Ġpent": 6654,
      "Ġtechniques": 6655,
      "Ġbry": 6656,
      "pes": 6657,
      "Ġcannabis": 6658,
      "stal": 6659,
      "Ġclients": 6660,
      "Ġoverse": 6661,
      "Ġcd": 6662,
      "Ġspain": 6663,
      "Ġdict": 6664,
      "Ġconcluded": 6665,
      "Ġunif": 6666,
      "Ġcollected": 6667,
      "Ġjoseph": 6668,
      "Ġsurgery": 6669,
      "Ġliquid": 6670,
      "uated": 6671,
      "Ġfarmers": 6672,
      "Ġsuccessfully": 6673,
      "adelphia": 6674,
      "Ġscenes": 6675,
      "Ġtied": 6676,
      "Ġhorse": 6677,
      "fi": 6678,
      "Ġranking": 6679,
      "gun": 6680,
      "Ġ($": 6681,
      "Ġstuck": 6682,
      "Ġcorruption": 6683,
      "pal": 6684,
      "Ġuncertain": 6685,
      "Ġkent": 6686,
      "Ġplate": 6687,
      "Ġvaluable": 6688,
      "Ġbron": 6689,
      "ÑĤ": 6690,
      "Ġnavig": 6691,
      "owed": 6692,
      "Ġpill": 6693,
      "Ġads": 6694,
      "eng": 6695,
      "Ġconsumption": 6696,
      "Ġsoccer": 6697,
      "Ġphilosophy": 6698,
      "Ġ1999": 6699,
      "Ġacceler": 6700,
      "page": 6701,
      "Ġkat": 6702,
      "hum": 6703,
      "Ġsolve": 6704,
      "Ġinformed": 6705,
      "rene": 6706,
      "Ġautomatically": 6707,
      "Ġtaxpay": 6708,
      "Ġnormally": 6709,
      "mic": 6710,
      "Ġdisaster": 6711,
      "Ġhole": 6712,
      "orrow": 6713,
      "Ġwarming": 6714,
      "Ġsimilarly": 6715,
      "Ġawards": 6716,
      "Ġstrict": 6717,
      "Ġhub": 6718,
      "Ġinnoc": 6719,
      "hr": 6720,
      "Ġsheriff": 6721,
      "Ġpersonnel": 6722,
      "Ġtaught": 6723,
      "text": 6724,
      "Ġinstalled": 6725,
      "Ġgarden": 6726,
      "Ġdrawing": 6727,
      "ref": 6728,
      "timore": 6729,
      "Ġinterface": 6730,
      "Ġmilk": 6731,
      "Ġwisconsin": 6732,
      "Ġphr": 6733,
      "Ġforever": 6734,
      "inem": 6735,
      "Ġweekly": 6736,
      "Ġtitles": 6737,
      "Ġdiam": 6738,
      "Ġjason": 6739,
      "Ġfounded": 6740,
      "Ġinvestigators": 6741,
      "itals": 6742,
      "Ġgig": 6743,
      "hop": 6744,
      "Ġadopted": 6745,
      "etime": 6746,
      "rad": 6747,
      "Ġspons": 6748,
      "Ġaccomp": 6749,
      "Ġfalls": 6750,
      "300": 6751,
      "Ġfel": 6752,
      "Ġmosc": 6753,
      "Ġportion": 6754,
      "Ġafraid": 6755,
      "Ġmarked": 6756,
      "Ġpacific": 6757,
      "Ġdiscipl": 6758,
      "Ġaimed": 6759,
      "Ġtaylor": 6760,
      "68": 6761,
      "nc": 6762,
      "Ġneutral": 6763,
      "Ġfrustr": 6764,
      "Ġphiladelphia": 6765,
      "df": 6766,
      "Ġeverywhere": 6767,
      "Ġhenry": 6768,
      "Ġastron": 6769,
      "Ġproved": 6770,
      "Ġshock": 6771,
      "Ġanticip": 6772,
      "Ġimplementation": 6773,
      "Ġyield": 6774,
      "Ġthousand": 6775,
      "Ġrepresented": 6776,
      "gorith": 6777,
      "Ġgat": 6778,
      "Ġstrategic": 6779,
      "iner": 6780,
      "Ġreputation": 6781,
      "Ġdust": 6782,
      "nis": 6783,
      "Ġshr": 6784,
      "Ġlane": 6785,
      "Ġmanchester": 6786,
      "irst": 6787,
      "Ġprominent": 6788,
      "non": 6789,
      "Ġcomplicated": 6790,
      "Ġsurvive": 6791,
      "cles": 6792,
      "Ġviet": 6793,
      "Ġoperate": 6794,
      "Ġlinux": 6795,
      "Ġinev": 6796,
      "Ġstrikes": 6797,
      "Ġgov": 6798,
      "Ġfactory": 6799,
      "pres": 6800,
      "Ġdinner": 6801,
      "ena": 6802,
      "pected": 6803,
      "iana": 6804,
      "iser": 6805,
      "Ġmainly": 6806,
      "Ġlady": 6807,
      "Ġhu": 6808,
      "Ġaffordable": 6809,
      "Ġestablishment": 6810,
      "Ġcomputers": 6811,
      "Ġdoors": 6812,
      "Ġib": 6813,
      "Ġalab": 6814,
      "Ġexplicit": 6815,
      "Ġexclusive": 6816,
      "hd": 6817,
      "Ġtransit": 6818,
      "lers": 6819,
      "rics": 6820,
      "Ġformal": 6821,
      "aid": 6822,
      "enders": 6823,
      "Ġpropag": 6824,
      "Ġphysic": 6825,
      "Ġentit": 6826,
      "Ġinnovation": 6827,
      "Ġsettings": 6828,
      "Ġcrop": 6829,
      "Ġstack": 6830,
      "Ġprinciple": 6831,
      "Ġrarely": 6832,
      "osing": 6833,
      "Ġtracks": 6834,
      "quarters": 6835,
      "Ġclubs": 6836,
      "Ġvisited": 6837,
      "Ġmanufacturing": 6838,
      "Ġ64": 6839,
      "Ġcited": 6840,
      "Ġhadn": 6841,
      "Ġthick": 6842,
      "Ġexposure": 6843,
      "Ġapolog": 6844,
      "uine": 6845,
      "Ġalgorith": 6846,
      "Ġphones": 6847,
      "sole": 6848,
      "Ġfault": 6849,
      "âĢĺ": 6850,
      "Ġgreek": 6851,
      "Ġnegotiations": 6852,
      "Ġintense": 6853,
      "Ġstun": 6854,
      "Ġwww": 6855,
      "Ġpossession": 6856,
      "Ġdestruction": 6857,
      "Ġlgbt": 6858,
      "Ġgift": 6859,
      "agram": 6860,
      "ibilities": 6861,
      "Ġsanctions": 6862,
      "Ġlegacy": 6863,
      "Ġpasses": 6864,
      "Ġfrag": 6865,
      "Ġmaps": 6866,
      "Ġsufficient": 6867,
      "Ġmoscow": 6868,
      "Ġbaltimore": 6869,
      "%.": 6870,
      "Ġprivile": 6871,
      "Ġlosses": 6872,
      "Ġholiday": 6873,
      "Ġenjoyed": 6874,
      "Ġscenario": 6875,
      "Ġvulnerable": 6876,
      "Ġpeak": 6877,
      "Ġequivalent": 6878,
      "Ġfee": 6879,
      "Ġmars": 6880,
      "Ġattended": 6881,
      "Ġreduction": 6882,
      "Ġaffil": 6883,
      "Ġfinger": 6884,
      "Ġchip": 6885,
      "Ġprocesses": 6886,
      "Ġreader": 6887,
      "then": 6888,
      "Ġstations": 6889,
      "Ġshit": 6890,
      "Ġpatterns": 6891,
      "Ġont": 6892,
      "Ġliberty": 6893,
      "Ġunusual": 6894,
      "regon": 6895,
      "Ġcomedy": 6896,
      "Ġexpectations": 6897,
      "++": 6898,
      "Ġdance": 6899,
      "lix": 6900,
      "month": 6901,
      "upid": 6902,
      "Ġavo": 6903,
      "Ġprofession": 6904,
      "Ġoregon": 6905,
      "Ġdelivery": 6906,
      "Ġcontracts": 6907,
      "rete": 6908,
      "twitter": 6909,
      "pg": 6910,
      "Ø§": 6911,
      "________________": 6912,
      "idelines": 6913,
      "Ġmath": 6914,
      "found": 6915,
      "sell": 6916,
      "Ġabst": 6917,
      "Ġcameras": 6918,
      "idency": 6919,
      "Ġbug": 6920,
      "fa": 6921,
      "Ġaer": 6922,
      "Ġpremium": 6923,
      "Ñģ": 6924,
      "Ġsmoke": 6925,
      "Ġts": 6926,
      "Ġwrest": 6927,
      "Ġpounds": 6928,
      "Ġorange": 6929,
      "Ġ400": 6930,
      "Ġbanned": 6931,
      "Ġward": 6932,
      "Ġprincip": 6933,
      "Ġsams": 6934,
      "Ġharry": 6935,
      "Ġigno": 6936,
      "Ġexternal": 6937,
      "pat": 6938,
      "power": 6939,
      "Ġquot": 6940,
      "Ġelev": 6941,
      "Ġ47": 6942,
      "Ġwarri": 6943,
      "Ġwithdraw": 6944,
      "Ġmarvel": 6945,
      "98": 6946,
      "Ġecho": 6947,
      "olis": 6948,
      "Ġsaved": 6949,
      "Ġlobby": 6950,
      "Ġwine": 6951,
      "Ġarrange": 6952,
      "umin": 6953,
      "Ġvisible": 6954,
      "Ġmccain": 6955,
      "Ġzealand": 6956,
      "Ġgonna": 6957,
      "Ġentering": 6958,
      "Ġguest": 6959,
      "Ġiowa": 6960,
      "Ġjournalist": 6961,
      "Ġfought": 6962,
      "ifications": 6963,
      "Ġexception": 6964,
      "Ġwonderful": 6965,
      "Ġtomorrow": 6966,
      "Ġemerged": 6967,
      "Ġguardian": 6968,
      "uct": 6969,
      "Ġdescribes": 6970,
      "Ġobst": 6971,
      "Ġfiction": 6972,
      "Ġgenuine": 6973,
      "Ġfirms": 6974,
      "Ġ150": 6975,
      "Ġbusy": 6976,
      "Ġexit": 6977,
      "Ġpermission": 6978,
      "Ġfeelings": 6979,
      "Ġ44": 6980,
      "Ġhopefully": 6981,
      "========": 6982,
      "Ġcreates": 6983,
      "Ġloud": 6984,
      "Ġlaid": 6985,
      "Ġborrow": 6986,
      "67": 6987,
      "Ġtail": 6988,
      "Ġamid": 6989,
      "Ġincent": 6990,
      "Ġwarrant": 6991,
      "Ġalabama": 6992,
      "Ġgenerated": 6993,
      "Ġcompete": 6994,
      "Ġpig": 6995,
      "Ġadventure": 6996,
      "Ġships": 6997,
      "areness": 6998,
      "Ġrook": 6999,
      "Ġmonitor": 7000,
      "Ġ55": 7001,
      "Ġpapers": 7002,
      "Ġsettlement": 7003,
      "Ġ2019": 7004,
      "Äĥ": 7005,
      "Ġhyper": 7006,
      "Ġwelf": 7007,
      "Ġintroduction": 7008,
      "Ġtoler": 7009,
      "Ġsty": 7010,
      "Ġstable": 7011,
      "Ġresulted": 7012,
      "Ġpriority": 7013,
      "Ġgut": 7014,
      "mit": 7015,
      "bb": 7016,
      "Ġuncom": 7017,
      "Ġintellectual": 7018,
      "Ġwides": 7019,
      "Ġnominee": 7020,
      "02": 7021,
      "ala": 7022,
      "uls": 7023,
      "Ġframework": 7024,
      "Ġprocessing": 7025,
      "Ġwelfare": 7026,
      "Ġbonus": 7027,
      "berry": 7028,
      "athy": 7029,
      "Ġcircuit": 7030,
      "Ġcorporations": 7031,
      "Ġ?": 7032,
      "Ġgif": 7033,
      "Ġbehalf": 7034,
      "Ġrank": 7035,
      "hetic": 7036,
      "vania": 7037,
      "Ġwol": 7038,
      "Ġbin": 7039,
      "Ġvital": 7040,
      "Ġinterviews": 7041,
      "Ġlandsc": 7042,
      "Ġnewsletter": 7043,
      "Ġfootage": 7044,
      "Ġwhenever": 7045,
      "eda": 7046,
      "Ġarc": 7047,
      "Ġarsen": 7048,
      "Ġgrav": 7049,
      "trans": 7050,
      "Ġcu": 7051,
      "Ġprince": 7052,
      "izon": 7053,
      "Ġmarine": 7054,
      "Ġ1998": 7055,
      "Ġheaded": 7056,
      "Ġfisc": 7057,
      "Ġfriendly": 7058,
      "Ġcommander": 7059,
      "ogen": 7060,
      "Ġlistening": 7061,
      "etary": 7062,
      "Ġenorm": 7063,
      "Ġdiscrimination": 7064,
      "pread": 7065,
      "Ġbeliefs": 7066,
      "Ġster": 7067,
      "Ġinvent": 7068,
      "Ġmathem": 7069,
      "Ġhorror": 7070,
      "Ġgreg": 7071,
      "je": 7072,
      "Ġreducing": 7073,
      "Ġreven": 7074,
      "Ġloyal": 7075,
      "actions": 7076,
      "aving": 7077,
      "oming": 7078,
      "phones": 7079,
      "Ġresource": 7080,
      "Ġparticipate": 7081,
      "Ġgross": 7082,
      "Ġcomponent": 7083,
      "rical": 7084,
      "Ġsteam": 7085,
      "Ġholy": 7086,
      "Ġatlanta": 7087,
      "</": 7088,
      "Ġdragon": 7089,
      "âĢĻ,": 7090,
      "Ġanger": 7091,
      "Ġveterans": 7092,
      "herent": 7093,
      "Ġstructures": 7094,
      "Ġdeliber": 7095,
      "Ġarena": 7096,
      "Ġvr": 7097,
      "Ġreviews": 7098,
      "Ġmenu": 7099,
      "Ġnato": 7100,
      "Ġrober": 7101,
      "making": 7102,
      "Ġpatrick": 7103,
      "Ġlanguages": 7104,
      "Ġnu": 7105,
      "Ġgained": 7106,
      "Ġwaters": 7107,
      "Ġprepare": 7108,
      "Ġcollapse": 7109,
      "Ġfighter": 7110,
      "mod": 7111,
      "Ġrely": 7112,
      "Ġtrigger": 7113,
      "Ġgent": 7114,
      "Ġbail": 7115,
      "lc": 7116,
      "Ġbernie": 7117,
      "Ġ1960": 7118,
      "Ġeag": 7119,
      "Ġingred": 7120,
      "Ġroles": 7121,
      "Ġturkish": 7122,
      "rough": 7123,
      "Ġfoss": 7124,
      "Ġwidespread": 7125,
      "Ġsnap": 7126,
      "Ġstruggling": 7127,
      "iler": 7128,
      "Ġjay": 7129,
      "Ġrestrictions": 7130,
      "syl": 7131,
      "Ġtum": 7132,
      "Ġ~": 7133,
      "etts": 7134,
      "ÂĴ": 7135,
      "Ġsmooth": 7136,
      "Ġsamsung": 7137,
      "Ġliked": 7138,
      "asion": 7139,
      "ested": 7140,
      "mate": 7141,
      "oe": 7142,
      "Ġkm": 7143,
      "Ġretired": 7144,
      "interest": 7145,
      "Ġunex": 7146,
      "Ġhitting": 7147,
      "Ġjury": 7148,
      "Ġscreens": 7149,
      "oric": 7150,
      "Ġminds": 7151,
      "anny": 7152,
      "Ġregulation": 7153,
      "Ġpractical": 7154,
      "Ġmatthe": 7155,
      "fs": 7156,
      "Ġdynamic": 7157,
      "Ġscholars": 7158,
      "Ġ46": 7159,
      "Ġreddit": 7160,
      "Ġimprovements": 7161,
      "igen": 7162,
      "Ġracing": 7163,
      "Ġrear": 7164,
      "ishes": 7165,
      "Ġott": 7166,
      "Ġequally": 7167,
      "Ġbird": 7168,
      "Ġmovements": 7169,
      "esy": 7170,
      "Ġaver": 7171,
      "Ġtransgender": 7172,
      "Ġindicate": 7173,
      "Ġutil": 7174,
      "Ġovers": 7175,
      "ria": 7176,
      "Ġmm": 7177,
      "Ġscoring": 7178,
      "Ġboat": 7179,
      "Ġcenters": 7180,
      "Ġdiego": 7181,
      "Ġcomprehens": 7182,
      "Ġnaturally": 7183,
      "Ġsha": 7184,
      "Ġ65": 7185,
      "Ġtechnique": 7186,
      "icy": 7187,
      "ifies": 7188,
      "Ġvisitors": 7189,
      "Ġbarely": 7190,
      "Ġpad": 7191,
      "Ġconvicted": 7192,
      "amac": 7193,
      "Ġscores": 7194,
      "profit": 7195,
      "Ġcontaining": 7196,
      "Ġ41": 7197,
      "front": 7198,
      "âĢĶâĢĶâĢĶâĢĶ": 7199,
      "may": 7200,
      "Ġwebsites": 7201,
      "Ġbub": 7202,
      "Ġsubjects": 7203,
      "Ġcircle": 7204,
      "Ġdistur": 7205,
      "ione": 7206,
      "teen": 7207,
      "osexual": 7208,
      "Ġcollective": 7209,
      "Ġliby": 7210,
      "Ġconnections": 7211,
      "imm": 7212,
      "Ġupset": 7213,
      "Ġtu": 7214,
      "Ġproven": 7215,
      "Ġlucky": 7216,
      "Ġcogn": 7217,
      "Ġhired": 7218,
      "esc": 7219,
      "Ġwalls": 7220,
      "rass": 7221,
      "ascript": 7222,
      "Ġmining": 7223,
      "Ġrecommended": 7224,
      "Ġlists": 7225,
      "Ġaustin": 7226,
      "Ġpresum": 7227,
      "Ġunw": 7228,
      "ji": 7229,
      "\":": 7230,
      "Ġlux": 7231,
      "Ġrural": 7232,
      "Ġlogic": 7233,
      "Ġflaw": 7234,
      "Ġanybody": 7235,
      "llo": 7236,
      "Ġmarks": 7237,
      "Ġquote": 7238,
      "lan": 7239,
      "Ġrecognized": 7240,
      "Ġproducing": 7241,
      "Ġanton": 7242,
      "Ġsum": 7243,
      "Ġhumanity": 7244,
      "Ġbeauty": 7245,
      "achus": 7246,
      "Ġfc": 7247,
      "hentic": 7248,
      "nedy": 7249,
      "ira": 7250,
      "Ġ43": 7251,
      "Ġdomain": 7252,
      "Ġpresc": 7253,
      "Ġbacked": 7254,
      "spec": 7255,
      "burgh": 7256,
      "Ġghost": 7257,
      "Ġfantastic": 7258,
      "Ġouts": 7259,
      "Ġgenetic": 7260,
      "Ġfruit": 7261,
      "Ġfeaturing": 7262,
      "Ġethnic": 7263,
      "Ġremem": 7264,
      "Ġbegun": 7265,
      "istent": 7266,
      "Ġchallenging": 7267,
      "Ġconsole": 7268,
      "Ġunemployment": 7269,
      "Ġterrorists": 7270,
      "oured": 7271,
      "Ġepisodes": 7272,
      "Ġufc": 7273,
      "Ġversus": 7274,
      "Ġrecognition": 7275,
      "Ġtestim": 7276,
      "Ġracist": 7277,
      "Ġinquir": 7278,
      "icate": 7279,
      "Ġconvin": 7280,
      "Ġcorporation": 7281,
      "aire": 7282,
      "Ġcampaigns": 7283,
      "Ġrevel": 7284,
      "Ġpennsyl": 7285,
      "usive": 7286,
      "Ġbrill": 7287,
      "Ġcrown": 7288,
      "Ġwolf": 7289,
      "ashes": 7290,
      "Ġsettle": 7291,
      "Ġtam": 7292,
      "ilton": 7293,
      "rific": 7294,
      "Ġ->": 7295,
      "03": 7296,
      "Ġshell": 7297,
      "97": 7298,
      "Ġgene": 7299,
      "ologists": 7300,
      "Ġlicens": 7301,
      "press": 7302,
      "Ġheroes": 7303,
      "Ġhd": 7304,
      "ighter": 7305,
      "oning": 7306,
      "))": 7307,
      "Ġjoining": 7308,
      "Ġcompe": 7309,
      "Ġhook": 7310,
      "Ġcommissioner": 7311,
      "Ġincorpor": 7312,
      "amacare": 7313,
      "Ġreaching": 7314,
      "96": 7315,
      "ÑĢ": 7316,
      "eding": 7317,
      "Ġperpet": 7318,
      "Ġforgot": 7319,
      "Ġlatin": 7320,
      "gal": 7321,
      "Ġmini": 7322,
      "Ġsuggesting": 7323,
      "Ġalbert": 7324,
      "Ġusage": 7325,
      "Ġrice": 7326,
      "Ġblocked": 7327,
      "aska": 7328,
      "Ġpel": 7329,
      "Ġcontained": 7330,
      "Ġabc": 7331,
      "Ġcarefully": 7332,
      "Ġsubur": 7333,
      "Ġislands": 7334,
      "Ġhardly": 7335,
      "Ġporn": 7336,
      "Ġbudd": 7337,
      "Ġelig": 7338,
      "Ġgrounds": 7339,
      "Ġallen": 7340,
      "Ġrescue": 7341,
      "Ġprosecutors": 7342,
      "Ġreferring": 7343,
      "bles": 7344,
      "Ġknight": 7345,
      "cor": 7346,
      "Ġinner": 7347,
      "Ġneighbour": 7348,
      "Ġgenes": 7349,
      "Ġillness": 7350,
      "Ġasks": 7351,
      "Ġrecover": 7352,
      "Ġdevast": 7353,
      "Ġwhereas": 7354,
      "Ġprotocol": 7355,
      "uce": 7356,
      "Ġcontribute": 7357,
      "Ġstupid": 7358,
      "Ġawareness": 7359,
      "these": 7360,
      "Ġguitar": 7361,
      "Ġtill": 7362,
      "itors": 7363,
      "uous": 7364,
      "Ġroy": 7365,
      "Ġparad": 7366,
      "Ġfiscal": 7367,
      "Ġsensitive": 7368,
      "Ġrapidly": 7369,
      "Ġachieved": 7370,
      "achusetts": 7371,
      "ci": 7372,
      "Ġtackle": 7373,
      "Ġneck": 7374,
      "Ġkennedy": 7375,
      "Ġadvocates": 7376,
      "Ġnotion": 7377,
      "Ġlt": 7378,
      "Ġscan": 7379,
      "azz": 7380,
      "Ġbund": 7381,
      "Ġiii": 7382,
      "Ġequality": 7383,
      "Ġrocket": 7384,
      "Ġsurely": 7385,
      "Ġtopics": 7386,
      "Ġactors": 7387,
      "Ġwalker": 7388,
      "Ġpublication": 7389,
      "Ġtonight": 7390,
      "Ġmanif": 7391,
      "Ġdiversity": 7392,
      "Ġmusical": 7393,
      "Ġcream": 7394,
      "rators": 7395,
      "Ġvary": 7396,
      "Ġgray": 7397,
      "Ġlayer": 7398,
      "core": 7399,
      "isa": 7400,
      "Ġans": 7401,
      "ouver": 7402,
      "Ġupgrade": 7403,
      "Ġnoise": 7404,
      "Ġbars": 7405,
      "Ġroads": 7406,
      "Ġlind": 7407,
      "mented": 7408,
      "Ġinterior": 7409,
      "Ġvoter": 7410,
      "agger": 7411,
      "Ġhypot": 7412,
      "ounced": 7413,
      "Ġinject": 7414,
      "Ġtemporary": 7415,
      "Ġcasual": 7416,
      "Ġexceed": 7417,
      "Ġgiants": 7418,
      "Ġtren": 7419,
      "Ġhealthcare": 7420,
      "Ġsoil": 7421,
      "Ġmerc": 7422,
      "Ġhunt": 7423,
      "Ġkansas": 7424,
      "plus": 7425,
      "why": 7426,
      "Ġfailing": 7427,
      "getty": 7428,
      "Ġpennsylvania": 7429,
      "Ġdrum": 7430,
      "veland": 7431,
      "Ġindicated": 7432,
      "Ġsalary": 7433,
      "udes": 7434,
      "Ġimprovement": 7435,
      "Ġruby": 7436,
      "Ġanonymous": 7437,
      "only": 7438,
      "Ġross": 7439,
      "Ġprotein": 7440,
      "Ġclock": 7441,
      "Ġrs": 7442,
      "ucky": 7443,
      "400": 7444,
      "Ġhoward": 7445,
      "Ġmissile": 7446,
      "ulating": 7447,
      "Ġspiritual": 7448,
      "Ġlewis": 7449,
      "ito": 7450,
      "riers": 7451,
      "Ġgreece": 7452,
      "Ġmassachusetts": 7453,
      "Ġbears": 7454,
      "Ġrav": 7455,
      "away": 7456,
      "Ġhydro": 7457,
      "Ġfoods": 7458,
      "Ġserves": 7459,
      "Ġanthony": 7460,
      "Ġownership": 7461,
      "Ġphilipp": 7462,
      "Ġbehaviour": 7463,
      "Ġsony": 7464,
      "Ġimplemented": 7465,
      "Ġgaza": 7466,
      "Ġeconomics": 7467,
      "onso": 7468,
      "Ġmonthly": 7469,
      "Ġdisagree": 7470,
      "Ã¢": 7471,
      "lah": 7472,
      "Ġinvited": 7473,
      "lessly": 7474,
      "user": 7475,
      "Ġindustries": 7476,
      "Ġranked": 7477,
      "Ġscandal": 7478,
      "oked": 7479,
      "heast": 7480,
      "Ġfortun": 7481,
      "Ġunclear": 7482,
      "Ġaccompan": 7483,
      "Ġml": 7484,
      "Ġpatch": 7485,
      "Ġconspiracy": 7486,
      "Ġspar": 7487,
      "rets": 7488,
      "Ġcomplaints": 7489,
      "%,": 7490,
      "olen": 7491,
      "Ġignore": 7492,
      "Ġpant": 7493,
      "Ġconvinced": 7494,
      "Ġnsa": 7495,
      "Ġinspect": 7496,
      "will": 7497,
      "Ġwhis": 7498,
      "Ġassass": 7499,
      "uing": 7500,
      "Ġcabinet": 7501,
      "Ġves": 7502,
      "donald": 7503,
      "Ġsurviv": 7504,
      "Ġdeeper": 7505,
      "Ġheading": 7506,
      "Ġcontroversy": 7507,
      "Ġsurvival": 7508,
      "Ġvanc": 7509,
      "Ġchristians": 7510,
      "turn": 7511,
      "Ġmonster": 7512,
      "Ġpitt": 7513,
      "Ġdave": 7514,
      "\".[": 7515,
      "Ġespn": 7516,
      "Ġoverwhelming": 7517,
      "Ð½": 7518,
      "Ġheadquarters": 7519,
      "Ġdisappear": 7520,
      "vp": 7521,
      "Ġages": 7522,
      "rator": 7523,
      "Ġ1996": 7524,
      "Ġdiscussions": 7525,
      "Ġraces": 7526,
      "py": 7527,
      "Ġprogramme": 7528,
      "Ġstreng": 7529,
      "Ġlets": 7530,
      "mental": 7531,
      "sels": 7532,
      "oen": 7533,
      "Ġexpanded": 7534,
      "Ġintervention": 7535,
      "Ġopens": 7536,
      "Ġsamples": 7537,
      "Ġextend": 7538,
      "Ġsymptoms": 7539,
      "Ġcoaches": 7540,
      "Ġios": 7541,
      "case": 7542,
      "Ġhandful": 7543,
      "Ġridicul": 7544,
      "Ġinvestigate": 7545,
      "Ġtips": 7546,
      "Ġark": 7547,
      "angel": 7548,
      "Ġspaces": 7549,
      "Ġdrama": 7550,
      "Ġrational": 7551,
      "aka": 7552,
      "Ġanderson": 7553,
      "hour": 7554,
      "Ġcbs": 7555,
      "Ġlegs": 7556,
      "Ġbible": 7557,
      "Ġglobe": 7558,
      "Ġcivilians": 7559,
      "Ġtone": 7560,
      "Ġshopping": 7561,
      "bered": 7562,
      "Ġcolors": 7563,
      "Ġai": 7564,
      "Ġtoy": 7565,
      "Ġcolumbia": 7566,
      "Ġabb": 7567,
      "Ġrolling": 7568,
      "Ġgrid": 7569,
      "Ġestimate": 7570,
      "Ġfallen": 7571,
      "Ġvegas": 7572,
      "Ġtasks": 7573,
      "Ġbutt": 7574,
      "Ġinvolvement": 7575,
      "Ġpassword": 7576,
      "Ġattacking": 7577,
      "Ġplain": 7578,
      "Ġremarks": 7579,
      "Ġpersonality": 7580,
      "Ġchamber": 7581,
      "Ġactivist": 7582,
      "supp": 7583,
      "Ġsurf": 7584,
      "Ġsenators": 7585,
      "Ġcul": 7586,
      "Ġharris": 7587,
      "Ġboot": 7588,
      "Ġcig": 7589,
      "bled": 7590,
      "Ġoffices": 7591,
      "Ġleaf": 7592,
      "Ġdefine": 7593,
      "Ġvirtually": 7594,
      "Ġmetro": 7595,
      "Ġcareful": 7596,
      "âĸ": 7597,
      "74": 7598,
      "76": 7599,
      "Ġlev": 7600,
      "inois": 7601,
      "Ġliterature": 7602,
      "high": 7603,
      "Ġobamacare": 7604,
      "Ġkeys": 7605,
      "Ġviewers": 7606,
      "Ġambass": 7607,
      "aning": 7608,
      "rendum": 7609,
      "Ġtes": 7610,
      "ihad": 7611,
      "Ġdistributed": 7612,
      "Ġcameron": 7613,
      "Ġclosing": 7614,
      "Ġcleveland": 7615,
      "Ġdramatic": 7616,
      "including": 7617,
      "Ġsed": 7618,
      "Ġepic": 7619,
      "Ġproviders": 7620,
      "Ġrespectively": 7621,
      "Ġvancouver": 7622,
      "sub": 7623,
      "Ġattached": 7624,
      "Ġstrip": 7625,
      "Ġhighway": 7626,
      "Ġassessment": 7627,
      "Ġtent": 7628,
      "Ġburning": 7629,
      "Ġchest": 7630,
      "yard": 7631,
      "Ġstal": 7632,
      "Ġsummit": 7633,
      "umes": 7634,
      "Ġgrade": 7635,
      "uch": 7636,
      "Ġnin": 7637,
      "Ġstake": 7638,
      "Ġcovers": 7639,
      "Ġgains": 7640,
      "Ġarsenal": 7641,
      "icon": 7642,
      "gent": 7643,
      "ÙĦ": 7644,
      "llar": 7645,
      "Ġprofits": 7646,
      "Ġtrained": 7647,
      "Ġdispl": 7648,
      "Ġpride": 7649,
      "Ġsuperior": 7650,
      "Ġhip": 7651,
      "Ġpetition": 7652,
      "Ġhomeless": 7653,
      "Ġnoting": 7654,
      "Ġhan": 7655,
      "Ġgetty": 7656,
      "Ġplatforms": 7657,
      "Ġ1997": 7658,
      "Ġtut": 7659,
      "Ġbrook": 7660,
      "Ġjustin": 7661,
      "Ġrebu": 7662,
      "Ġsubsequent": 7663,
      "neys": 7664,
      "Ġ51": 7665,
      "Ġpurchased": 7666,
      "Ġwages": 7667,
      "Ġkong": 7668,
      "Ġadmit": 7669,
      "yer": 7670,
      "Ġthrown": 7671,
      "Ġdol": 7672,
      "Ġeve": 7673,
      "Ġencry": 7674,
      "Ġfears": 7675,
      "Ġbread": 7676,
      "Ġopinions": 7677,
      "js": 7678,
      "Ġimperial": 7679,
      "'.": 7680,
      "Ġtowns": 7681,
      "Ġcrus": 7682,
      "Ġjavascript": 7683,
      "Ġattitude": 7684,
      "Ġelder": 7685,
      "rac": 7686,
      "Ġblast": 7687,
      "Ġfool": 7688,
      "Ġfulf": 7689,
      "Ġinflation": 7690,
      "Ġsuffer": 7691,
      "Ġcorp": 7692,
      "Ġdemonst": 7693,
      "Ġpreced": 7694,
      "Ġtweeted": 7695,
      "Ġbesides": 7696,
      "Ġratio": 7697,
      "Ġalph": 7698,
      "een": 7699,
      "Ġcav": 7700,
      "Ġhanded": 7701,
      "Ġmembership": 7702,
      "Ġsanta": 7703,
      "Ġbanking": 7704,
      "Ġdump": 7705,
      "ether": 7706,
      "Ġcontributions": 7707,
      "Ġhug": 7708,
      "Ġshout": 7709,
      "ington": 7710,
      "Ġextraord": 7711,
      "Ġhint": 7712,
      "Ġ_": 7713,
      "Ġdepends": 7714,
      "Ġpyth": 7715,
      "Ġcompare": 7716,
      "Ġjoke": 7717,
      "Ġparalle": 7718,
      "Ġjunior": 7719,
      "big": 7720,
      "Ġapi": 7721,
      "Ġsuspected": 7722,
      "Ġpassengers": 7723,
      "85": 7724,
      "Ġgathered": 7725,
      "Ġreferendum": 7726,
      "Ġhandling": 7727,
      "connect": 7728,
      "Ġattempting": 7729,
      "Ġabsence": 7730,
      "ijing": 7731,
      "Ġformula": 7732,
      "ãĢ": 7733,
      "Ġloans": 7734,
      "Ġ%": 7735,
      "bac": 7736,
      "Ġauthentic": 7737,
      "Ġdisrupt": 7738,
      "Ġphotograp": 7739,
      "Ġlegitimate": 7740,
      "Ġdod": 7741,
      "owned": 7742,
      "ocation": 7743,
      "Ġclothes": 7744,
      "Ġtens": 7745,
      "Ġbutter": 7746,
      "Ġkitchen": 7747,
      "Ġillinois": 7748,
      "Ġcourtesy": 7749,
      "Ġinvestigating": 7750,
      "bow": 7751,
      "Ġprotecting": 7752,
      "Ġimproving": 7753,
      "Ġmonitoring": 7754,
      "Ġglad": 7755,
      "nat": 7756,
      "Ġswing": 7757,
      "Ġreplacement": 7758,
      "Ġbacter": 7759,
      "Ġscientist": 7760,
      "Ġtemple": 7761,
      "Ġguarantee": 7762,
      "Ġtracking": 7763,
      "Ġiraqi": 7764,
      "Ġannivers": 7765,
      "Ġjudges": 7766,
      "Ġdick": 7767,
      "Ġspeaks": 7768,
      "usted": 7769,
      "Ġramp": 7770,
      "orse": 7771,
      "aret": 7772,
      "Ġuniversities": 7773,
      "Ġinvestigations": 7774,
      "reprene": 7775,
      "active": 7776,
      "Ġxbox": 7777,
      "Ġconversations": 7778,
      "Ġlying": 7779,
      "Ġhighlights": 7780,
      "uma": 7781,
      "Ġblockchain": 7782,
      "Ġembarrass": 7783,
      "Ġpromises": 7784,
      "Ġbuzz": 7785,
      "Ġcher": 7786,
      "Ġskept": 7787,
      "Ġseemingly": 7788,
      "Ġacid": 7789,
      "Ġsuspended": 7790,
      "Ġdenver": 7791,
      "Ġmole": 7792,
      "Ġpersons": 7793,
      "Ġenormous": 7794,
      "Ġconce": 7795,
      "Ġvib": 7796,
      "Ġefficiency": 7797,
      "Ġtemperatures": 7798,
      "ikes": 7799,
      "Ġsweden": 7800,
      "Ġsatellite": 7801,
      "Ġswim": 7802,
      "itage": 7803,
      "Ġartific": 7804,
      "Ġballot": 7805,
      "Ġlegislative": 7806,
      "Ġfate": 7807,
      "Ġbloom": 7808,
      "aron": 7809,
      "fund": 7810,
      "Ġ52": 7811,
      "Ġiranian": 7812,
      "Ġmaryland": 7813,
      "die": 7814,
      "Ġviewed": 7815,
      "Ġtape": 7816,
      "bits": 7817,
      "??": 7818,
      "Ġstayed": 7819,
      "Ġconsistently": 7820,
      "Ġrhet": 7821,
      ".-": 7822,
      "ront": 7823,
      "Ġaddressed": 7824,
      "Ġtoxic": 7825,
      "Ġenterprise": 7826,
      "Ġinval": 7827,
      "Ġreads": 7828,
      "ima": 7829,
      "Ġcooperation": 7830,
      "ifer": 7831,
      "ucking": 7832,
      "Ġincidents": 7833,
      "lad": 7834,
      "xit": 7835,
      "Ġlowest": 7836,
      "Ġsubstantial": 7837,
      "........": 7838,
      "Ġpix": 7839,
      "Ġresign": 7840,
      "apes": 7841,
      "ictions": 7842,
      "bridge": 7843,
      "Ġsmoking": 7844,
      "Ġchel": 7845,
      "Ġbullet": 7846,
      "Ġabandoned": 7847,
      "69": 7848,
      "station": 7849,
      "\")": 7850,
      "72": 7851,
      "Ġthrowing": 7852,
      "Ġsilence": 7853,
      "Ġordinary": 7854,
      "mont": 7855,
      "Ġfisher": 7856,
      "tech": 7857,
      "wered": 7858,
      "ĠâĢĿ": 7859,
      "Ġpresidency": 7860,
      "Ġbreaks": 7861,
      "lahoma": 7862,
      "Ġsaving": 7863,
      "alo": 7864,
      "Ġscope": 7865,
      "Ġbind": 7866,
      "Ġsant": 7867,
      "Ġpier": 7868,
      "ppers": 7869,
      "Ġracism": 7870,
      "Ġdivided": 7871,
      "Ġrender": 7872,
      "Ġbirds": 7873,
      "Ġmortg": 7874,
      "acking": 7875,
      "oval": 7876,
      "Ġdepos": 7877,
      "Ġhong": 7878,
      "Ġwarn": 7879,
      "Ġrookie": 7880,
      "Ġarabia": 7881,
      "Ġfiref": 7882,
      "Ġarchitecture": 7883,
      "Ġanniversary": 7884,
      "gi": 7885,
      "Ġinstructions": 7886,
      "Ġbeijing": 7887,
      "Ġmistakes": 7888,
      "Ġpublishing": 7889,
      "Ġtai": 7890,
      "Ġfuck": 7891,
      "Ġinvolves": 7892,
      "Ġgraphics": 7893,
      "through": 7894,
      "Ġshoulder": 7895,
      "Ġorganic": 7896,
      "cos": 7897,
      "ystem": 7898,
      "Ġku": 7899,
      "Ġentreprene": 7900,
      "Ġwaves": 7901,
      "Ġvig": 7902,
      "Ġvel": 7903,
      "Ġkicked": 7904,
      "Ġstages": 7905,
      "Ġhey": 7906,
      "Ġmexican": 7907,
      "Ġaccus": 7908,
      "Ġroof": 7909,
      "iot": 7910,
      "Ġou": 7911,
      "Ġseed": 7912,
      "Ġtrem": 7913,
      "Ġchicken": 7914,
      "rolled": 7915,
      "Ġcommonly": 7916,
      "image": 7917,
      "Ġcorn": 7918,
      "Ġtie": 7919,
      "Ġcinem": 7920,
      "kee": 7921,
      "Ġpink": 7922,
      "mind": 7923,
      "Ġcovering": 7924,
      "Ġencouraged": 7925,
      "step": 7926,
      "Ġsymp": 7927,
      "Ġboom": 7928,
      "Ġspell": 7929,
      "comp": 7930,
      "Ġpicks": 7931,
      "Ġtries": 7932,
      "Ġborders": 7933,
      "Ġsyd": 7934,
      "Ġdies": 7935,
      "ila": 7936,
      "Ġengineers": 7937,
      "ti": 7938,
      "Ġobjective": 7939,
      "etch": 7940,
      "Ġstolen": 7941,
      "len": 7942,
      "Ġmidfield": 7943,
      "Ġdelic": 7944,
      "mus": 7945,
      "ustration": 7946,
      "Ġretirement": 7947,
      "Ġliverpool": 7948,
      "Ġneuro": 7949,
      "Ġsmile": 7950,
      "Ġsemi": 7951,
      "Ġblank": 7952,
      "news": 7953,
      "pie": 7954,
      "intendo": 7955,
      "otype": 7956,
      "Ġmock": 7957,
      "Ġentr": 7958,
      "string": 7959,
      "ommod": 7960,
      "Ġforb": 7961,
      "Ġwra": 7962,
      "Ġmile": 7963,
      "because": 7964,
      "Ġoklahoma": 7965,
      "ferences": 7966,
      "Ġug": 7967,
      "Ġtactics": 7968,
      "Ġsear": 7969,
      "Ġappreciate": 7970,
      "Ġfleet": 7971,
      "Ġtrave": 7972,
      "Ġfunded": 7973,
      "!)": 7974,
      "Ġaccommod": 7975,
      "Ġthrew": 7976,
      "Ġtransactions": 7977,
      "cur": 7978,
      "Ġsurge": 7979,
      "Ġdiverse": 7980,
      "Ġdeclar": 7981,
      "Ġfrequency": 7982,
      "white": 7983,
      "Ġlanding": 7984,
      "Ġproposals": 7985,
      "Ġdrone": 7986,
      "Ġbreath": 7987,
      "Ġstriking": 7988,
      "Ġignored": 7989,
      "Ġcheese": 7990,
      "Ġvisiting": 7991,
      "Ġautonom": 7992,
      "Ġmirror": 7993,
      "Ġdocumentary": 7994,
      "Ġpor": 7995,
      "Ġchecks": 7996,
      "Ġpocket": 7997,
      "Ġpolitically": 7998,
      "Ġtorture": 7999,
      "Ġspokesperson": 8000,
      "Ġlun": 8001,
      "rele": 8002,
      "Ġwarren": 8003,
      "Ġdistract": 8004,
      "ĠâĪĴ": 8005,
      "Ġuber": 8006,
      "Ġranks": 8007,
      "usalem": 8008,
      "Ġconventional": 8009,
      "Ġperforming": 8010,
      "Ġros": 8011,
      "Ġtestimony": 8012,
      "Ġjar": 8013,
      "Ġdish": 8014,
      "aga": 8015,
      "Ġ(âĢľ": 8016,
      "och": 8017,
      "Ġpharm": 8018,
      "Ġ1995": 8019,
      "Ġspoken": 8020,
      "Ġpipeline": 8021,
      "cia": 8022,
      "Ġkiss": 8023,
      "Ġpopulations": 8024,
      "Ġtouchdown": 8025,
      "good": 8026,
      "Ġgor": 8027,
      "ng": 8028,
      "Ġroberts": 8029,
      "cap": 8030,
      "Ġlocked": 8031,
      "first": 8032,
      "Ġamy": 8033,
      "Ġstamp": 8034,
      "ieties": 8035,
      "Ġforecast": 8036,
      "jud": 8037,
      "Ġcance": 8038,
      "Ġcopies": 8039,
      "Ġliberals": 8040,
      "Ġresponses": 8041,
      "Ġparks": 8042,
      "pel": 8043,
      "Ġchron": 8044,
      "Ġmechanism": 8045,
      "plate": 8046,
      "Ġvoices": 8047,
      "Ġhaz": 8048,
      "Ġcau": 8049,
      "Ġva": 8050,
      "Ġheritage": 8051,
      "Ġprovision": 8052,
      "irts": 8053,
      "Ġmemorial": 8054,
      "Ġdeadly": 8055,
      "Ġbatman": 8056,
      "ivals": 8057,
      "Ġappointed": 8058,
      "Ġmoreover": 8059,
      "bors": 8060,
      "Ġsword": 8061,
      "Ġabsor": 8062,
      "Ġconcrete": 8063,
      "Ġprisoners": 8064,
      "Ġassign": 8065,
      "Ġindiana": 8066,
      "Ġacquired": 8067,
      "Ġdates": 8068,
      "flix": 8069,
      "arms": 8070,
      "Ġchildhood": 8071,
      "eters": 8072,
      "Ġrestaurants": 8073,
      "Ġagriculture": 8074,
      "Ġportray": 8075,
      "Ġappearances": 8076,
      "Ġnomination": 8077,
      "Ġberlin": 8078,
      "Ġdisorder": 8079,
      "Ġrecipe": 8080,
      "Ġpredicted": 8081,
      "ills": 8082,
      "abeth": 8083,
      "bin": 8084,
      "Ġviolation": 8085,
      "Ġvit": 8086,
      "Ġsupplies": 8087,
      "Ġcomprehensive": 8088,
      "pc": 8089,
      "boy": 8090,
      "Ġcorps": 8091,
      "Ġcounts": 8092,
      "Ġdemonstrated": 8093,
      "Ġpi": 8094,
      "tal": 8095,
      "ahu": 8096,
      "Ġswift": 8097,
      "Ġrepeat": 8098,
      "Ġgallery": 8099,
      "Ġbelt": 8100,
      "Ġstudied": 8101,
      "tra": 8102,
      "esty": 8103,
      "Ġmunicip": 8104,
      "Ġsect": 8105,
      "Ġlunch": 8106,
      "Ġinsist": 8107,
      "scale": 8108,
      "Ġclinical": 8109,
      "Ġ1994": 8110,
      "uted": 8111,
      "Ġsecondary": 8112,
      "Ġsr": 8113,
      "Ġportland": 8114,
      "Ġdv": 8115,
      "Ġletting": 8116,
      "Ġmanaging": 8117,
      "Ġtheater": 8118,
      "Ġexperiments": 8119,
      "Ġcontrad": 8120,
      "bus": 8121,
      "sis": 8122,
      "Ġmodule": 8123,
      "Ġsarah": 8124,
      "Ġanxiety": 8125,
      "Ġengineer": 8126,
      "di": 8127,
      "Ġreleases": 8128,
      "Ġprincipal": 8129,
      "omes": 8130,
      "Ġlandscape": 8131,
      "Ġdiscour": 8132,
      "Ġgraham": 8133,
      "Ġguidelines": 8134,
      "Ġsevent": 8135,
      "Ġhurric": 8136,
      "Ġsydney": 8137,
      "Ġproducers": 8138,
      "ava": 8139,
      "Ġsavings": 8140,
      "mans": 8141,
      "Ġinsisted": 8142,
      "Ġdreams": 8143,
      "zer": 8144,
      "Ġjerusalem": 8145,
      "Ġacknowledged": 8146,
      "Ġdeficit": 8147,
      "cover": 8148,
      "Ġosc": 8149,
      "Ġeliz": 8150,
      "Ġassociate": 8151,
      "Ġnintendo": 8152,
      "encing": 8153,
      "Ġshame": 8154,
      "cond": 8155,
      "Ġreplied": 8156,
      "build": 8157,
      "Ġbruce": 8158,
      "was": 8159,
      "Ġontario": 8160,
      "Ġharvard": 8161,
      "wind": 8162,
      "Ġgraduate": 8163,
      "Ġelectoral": 8164,
      "Ġjet": 8165,
      "Ġerrors": 8166,
      "heim": 8167,
      "Ġunions": 8168,
      "Ġstro": 8169,
      "Ġmerch": 8170,
      "Ġadap": 8171,
      "Ġfold": 8172,
      "Ġalexander": 8173,
      "Ġreverse": 8174,
      "Ġstrategies": 8175,
      "qa": 8176,
      "Ġfiring": 8177,
      "Ġarrive": 8178,
      "Ġmrs": 8179,
      "800": 8180,
      "fare": 8181,
      "Ġstability": 8182,
      "ras": 8183,
      "Ġclassified": 8184,
      "Ġrevolutionary": 8185,
      "Ġbeta": 8186,
      "Ġreceiver": 8187,
      "Ġloop": 8188,
      "Ġprepar": 8189,
      "Ġmall": 8190,
      "door": 8191,
      "Ġhelpful": 8192,
      "Ġcriticized": 8193,
      "ource": 8194,
      "aching": 8195,
      "Ġcapabilities": 8196,
      "Ġreliable": 8197,
      "Ġrepresenting": 8198,
      "backs": 8199,
      "Ġbrilliant": 8200,
      "Ġwider": 8201,
      "angers": 8202,
      "Ġimportantly": 8203,
      "Ġabstract": 8204,
      "pre": 8205,
      "erted": 8206,
      "rock": 8207,
      "Ġunity": 8208,
      "Ġentitled": 8209,
      "div": 8210,
      "Ġregulatory": 8211,
      "Ġwitnesses": 8212,
      "Ġbelg": 8213,
      "Ġmargin": 8214,
      "ouri": 8215,
      "Ġweigh": 8216,
      "Ġdesigns": 8217,
      "made": 8218,
      "ali": 8219,
      "Ġjonathan": 8220,
      "Ġencounter": 8221,
      "Ġgenerations": 8222,
      "aze": 8223,
      "Ġ2020": 8224,
      "iano": 8225,
      "comes": 8226,
      "Ġkurd": 8227,
      "Ġsteven": 8228,
      "rett": 8229,
      "Ġpursue": 8230,
      "Ġinnocent": 8231,
      "inch": 8232,
      "Ġabroad": 8233,
      "ule": 8234,
      "Ġleon": 8235,
      "87": 8236,
      "Ġspectrum": 8237,
      "Ġtargeting": 8238,
      "fol": 8239,
      "log": 8240,
      "Ġinequ": 8241,
      "Ġfocusing": 8242,
      "Ġaccomplish": 8243,
      "Ġcapitalism": 8244,
      "vereign": 8245,
      "Ġcatal": 8246,
      "Ġvariable": 8247,
      "eping": 8248,
      "Ġassert": 8249,
      "Ġchocol": 8250,
      "Ġgord": 8251,
      "Ġjudgment": 8252,
      "Ġedward": 8253,
      "Ġstatist": 8254,
      "Ġrequested": 8255,
      "Ġservers": 8256,
      "Ġlect": 8257,
      "Ġsequence": 8258,
      "rimin": 8259,
      "Ġchelsea": 8260,
      "Ġthorough": 8261,
      "Ġrh": 8262,
      "Ġpopularity": 8263,
      "Ġsolo": 8264,
      "Ġpreparing": 8265,
      "Ġunderground": 8266,
      "Ġrecre": 8267,
      "Ġbold": 8268,
      "Ġodds": 8269,
      "ultane": 8270,
      "Ġmemo": 8271,
      "Ġinstant": 8272,
      "Ġcapit": 8273,
      "Ġabilities": 8274,
      "ĠâĤ¬": 8275,
      "Ġexha": 8276,
      "Ġpope": 8277,
      "Ġdivor": 8278,
      "Ġgary": 8279,
      "Ġja": 8280,
      "mart": 8281,
      "Ġsixth": 8282,
      "Ġtherapy": 8283,
      "Ġphysics": 8284,
      "Ġkings": 8285,
      "zed": 8286,
      "isons": 8287,
      "Ġurged": 8288,
      "Ġexecution": 8289,
      "Ġoverseas": 8290,
      "Ġfame": 8291,
      "Ġatlantic": 8292,
      "iev": 8293,
      "Ġsoldier": 8294,
      "Ġambassador": 8295,
      "Ġrelax": 8296,
      "Ġdeem": 8297,
      "Ġtrials": 8298,
      "Ġdrove": 8299,
      "Ġvirus": 8300,
      "owing": 8301,
      "pack": 8302,
      "Ġunexpected": 8303,
      "Ġadditionally": 8304,
      "working": 8305,
      "Ġemerging": 8306,
      "Ġhoped": 8307,
      "lee": 8308,
      "Ġfossil": 8309,
      "izer": 8310,
      "Ġreveals": 8311,
      "jan": 8312,
      "itzer": 8313,
      "Ġsubmitted": 8314,
      "89": 8315,
      "sd": 8316,
      "Ġgolf": 8317,
      "Ġdonations": 8318,
      "Ġgulf": 8319,
      "theless": 8320,
      "Ġmystery": 8321,
      "Ġjets": 8322,
      "Ġhunter": 8323,
      "Ġgab": 8324,
      "Ġapproached": 8325,
      "Ġhart": 8326,
      "Ġandre": 8327,
      "Ġdiscount": 8328,
      "Ġloose": 8329,
      "Ġstats": 8330,
      "Ġconsensus": 8331,
      "ika": 8332,
      "Ġay": 8333,
      "Ġinvestments": 8334,
      "Ġconfront": 8335,
      "Ġawarded": 8336,
      "Ġdistingu": 8337,
      "Ġsimultane": 8338,
      "Ġcommunist": 8339,
      "Ġmagnet": 8340,
      "Ġjihad": 8341,
      "tar": 8342,
      "left": 8343,
      "Ġ</": 8344,
      "Ġutah": 8345,
      "inks": 8346,
      "Ġdismissed": 8347,
      "Ġalter": 8348,
      "Ġplayoffs": 8349,
      "Ġexecutives": 8350,
      "Ġtrends": 8351,
      "Ġlapt": 8352,
      "Ġsne": 8353,
      "Ġstored": 8354,
      "Ġlegislature": 8355,
      "Ġcelebrate": 8356,
      "Ġsuspects": 8357,
      "Ġmeasured": 8358,
      "Ġratings": 8359,
      "amm": 8360,
      "Ġmuscle": 8361,
      "Ġpodcast": 8362,
      "Ġcock": 8363,
      "Ġunde": 8364,
      "Ġemployed": 8365,
      "Ġdeny": 8366,
      "Ġ**": 8367,
      "Ġjen": 8368,
      "Ġenhance": 8369,
      "Ġshipping": 8370,
      "break": 8371,
      "Ġcarter": 8372,
      "Ġdying": 8373,
      "Ġgt": 8374,
      "Ġrevol": 8375,
      "Ġcategories": 8376,
      "sect": 8377,
      "Ġmeg": 8378,
      "Ġwounded": 8379,
      "Ġforcing": 8380,
      "Ġorganisation": 8381,
      "Ġtitled": 8382,
      "Ġquoted": 8383,
      "Ġpuzz": 8384,
      "Ġaqu": 8385,
      "ads": 8386,
      "Ġphenomenon": 8387,
      "Ġcalm": 8388,
      "Ġformation": 8389,
      "Ġpron": 8390,
      "Ġintroduce": 8391,
      "Ġharassment": 8392,
      "ifi": 8393,
      "Ġpsychological": 8394,
      "Ġcoinc": 8395,
      "Ġcoin": 8396,
      "Ġdear": 8397,
      "anted": 8398,
      "inction": 8399,
      "holders": 8400,
      "Ġcivilian": 8401,
      "Ġchannels": 8402,
      "Ġoakland": 8403,
      "Ġnode": 8404,
      "Ġrooms": 8405,
      "inating": 8406,
      "inst": 8407,
      "Ġsocialist": 8408,
      "Ġeducational": 8409,
      "Ġjava": 8410,
      "Ġmathemat": 8411,
      "Ġprocedure": 8412,
      "Ġfran": 8413,
      "Ġspokeswoman": 8414,
      "Ġfoster": 8415,
      "Ð¾Ð": 8416,
      "Ġpropaganda": 8417,
      "Ġdialogue": 8418,
      "Ġoutrage": 8419,
      "Ġincomp": 8420,
      "Ġroots": 8421,
      "63": 8422,
      "Ġrebels": 8423,
      "claim": 8424,
      "Ġburden": 8425,
      "Ġspots": 8426,
      "Ġjean": 8427,
      "Ġwealthy": 8428,
      "Ġbattles": 8429,
      "Ġsean": 8430,
      "Ġsovereign": 8431,
      "base": 8432,
      "Ġdesert": 8433,
      "Ġgathering": 8434,
      "Ġbirthday": 8435,
      "Ġnetflix": 8436,
      "Ġciting": 8437,
      "minute": 8438,
      "79": 8439,
      "eing": 8440,
      "Ġnevertheless": 8441,
      "Ġstaying": 8442,
      "Ġyemen": 8443,
      "Ġky": 8444,
      "kind": 8445,
      "Ġstreaming": 8446,
      "eff": 8447,
      "Ġwanting": 8448,
      "zing": 8449,
      "Ġmissions": 8450,
      "apping": 8451,
      "Ġdifficulty": 8452,
      "his": 8453,
      "Ġrou": 8454,
      "Ġclothing": 8455,
      "Ġpassage": 8456,
      "Ġnev": 8457,
      "Ġpointing": 8458,
      "sk": 8459,
      "Ġarguing": 8460,
      "nett": 8461,
      "Ġcompat": 8462,
      "ppy": 8463,
      "Ġparticipation": 8464,
      "via": 8465,
      "Ġcolour": 8466,
      "rell": 8467,
      "Ġintim": 8468,
      "Ġstudios": 8469,
      "Ġdual": 8470,
      "Ġdifferently": 8471,
      "Ġdeadline": 8472,
      "secut": 8473,
      "Ġingredients": 8474,
      "Ġmemor": 8475,
      "author": 8476,
      "Ġphoen": 8477,
      "Ġmemories": 8478,
      "Ġ1992": 8479,
      "Ġexpanding": 8480,
      "Ġregistration": 8481,
      "Ġphrase": 8482,
      "61": 8483,
      "Ġcertific": 8484,
      "600": 8485,
      "Ġhi": 8486,
      "party": 8487,
      "Ġrounds": 8488,
      "held": 8489,
      "Ġdiseases": 8490,
      "rition": 8491,
      "Ġreforms": 8492,
      "xx": 8493,
      "Ġpalestinians": 8494,
      "Ġlands": 8495,
      "Ġdutch": 8496,
      "Ġprocedures": 8497,
      "Ġeggs": 8498,
      "Ġsignature": 8499,
      "atar": 8500,
      "govern": 8501,
      "Ġsettled": 8502,
      "Ġkiller": 8503,
      "Ġdrives": 8504,
      "Ġimplications": 8505,
      "Ġpunch": 8506,
      "Ġarbit": 8507,
      "Ġbrus": 8508,
      "Ġsmartphone": 8509,
      "Ġinstagram": 8510,
      "Ġquestioned": 8511,
      "Ġcharity": 8512,
      "Ġtiss": 8513,
      "Ġ54": 8514,
      "Ġtennes": 8515,
      "hill": 8516,
      "Ġpear": 8517,
      "Ġyan": 8518,
      "Ġdesigner": 8519,
      "Ġsinger": 8520,
      "Ġrevers": 8521,
      "Ġathe": 8522,
      "Ġconsideration": 8523,
      "Ġbroader": 8524,
      "Ġhospitals": 8525,
      "Ġnan": 8526,
      "ules": 8527,
      "Ġlogo": 8528,
      "ounce": 8529,
      "Ġ53": 8530,
      "Ġmanagers": 8531,
      "dep": 8532,
      "Ġpoison": 8533,
      "Ġenthusi": 8534,
      "ders": 8535,
      "trump": 8536,
      "Ġactively": 8537,
      "remony": 8538,
      "num": 8539,
      "Ġhunting": 8540,
      "Ġfurthermore": 8541,
      "Ġsilent": 8542,
      "Ġsummary": 8543,
      "mid": 8544,
      "Ġalan": 8545,
      "Ġremarkable": 8546,
      "Ġphysically": 8547,
      "73": 8548,
      "Ġub": 8549,
      "Ġgil": 8550,
      "Ġstere": 8551,
      "Ġoxy": 8552,
      "62": 8553,
      "odox": 8554,
      "Ġceremony": 8555,
      "Ġloves": 8556,
      "Ġprecisely": 8557,
      "nie": 8558,
      "organ": 8559,
      "Ġnur": 8560,
      "shire": 8561,
      "Ġcontemporary": 8562,
      "Ġ95": 8563,
      "âĪ´": 8564,
      "Ġtrillion": 8565,
      "Ġnap": 8566,
      "Ġdefending": 8567,
      "abet": 8568,
      "Ġasset": 8569,
      "Ġtransaction": 8570,
      "attan": 8571,
      "Ġpersu": 8572,
      "Ġhorn": 8573,
      "week": 8574,
      "Ġutility": 8575,
      "apolis": 8576,
      "Ġmaintained": 8577,
      "********": 8578,
      "Ġdemanding": 8579,
      "Ġolympic": 8580,
      "igue": 8581,
      "Ġgest": 8582,
      "urd": 8583,
      "Ġneighbors": 8584,
      "pton": 8585,
      "Ġhence": 8586,
      "Ġoccasionally": 8587,
      "Ġadviser": 8588,
      "Ġsimon": 8589,
      "archy": 8590,
      "strong": 8591,
      "gue": 8592,
      "Ġdispute": 8593,
      "stop": 8594,
      "Ġpromoting": 8595,
      "Ġconsent": 8596,
      "Ġhawai": 8597,
      "Ġjournalism": 8598,
      "Ġelizabeth": 8599,
      "ped": 8600,
      "Ġnotable": 8601,
      "Ġscottish": 8602,
      "Ġchaos": 8603,
      "Ġsynthe": 8604,
      "erts": 8605,
      "gov": 8606,
      "dam": 8607,
      "Ġgreatly": 8608,
      "Ġvert": 8609,
      "Ġanalysts": 8610,
      "Ġcontribution": 8611,
      "Ġhamilton": 8612,
      "âĢĲ": 8613,
      "aus": 8614,
      "aping": 8615,
      "Ġmeaningful": 8616,
      "Ġriding": 8617,
      "ben": 8618,
      "ompson": 8619,
      "Ġsearching": 8620,
      "Ġtheore": 8621,
      "anges": 8622,
      "Ġtheatre": 8623,
      "orship": 8624,
      "rooms": 8625,
      "Ġspo": 8626,
      "Ġdating": 8627,
      "Ġsetup": 8628,
      "Ġvend": 8629,
      "Ġexport": 8630,
      "asty": 8631,
      "Ġpatent": 8632,
      "Õ¡": 8633,
      "ogy": 8634,
      "Ġinfant": 8635,
      "Ġargues": 8636,
      "ports": 8637,
      "Ġsheet": 8638,
      "Ġcompeting": 8639,
      "Ġsorts": 8640,
      "Ġinquiry": 8641,
      "Ġtables": 8642,
      "Ġdesktop": 8643,
      "Ġot": 8644,
      "aware": 8645,
      "Ġexplaining": 8646,
      "Ġlifetime": 8647,
      "Ġdemonstrate": 8648,
      "Ġsie": 8649,
      "Ġprosecutor": 8650,
      "Ġfabric": 8651,
      "Ġreserved": 8652,
      "Ġcustody": 8653,
      "Ġintegrity": 8654,
      "cedented": 8655,
      "Ġ58": 8656,
      "Ġwings": 8657,
      "Ġknee": 8658,
      "Ġbish": 8659,
      "Ġsections": 8660,
      "Ġdj": 8661,
      "Ġchocolate": 8662,
      "gged": 8663,
      "Ġaccessible": 8664,
      "enez": 8665,
      "hard": 8666,
      "Ġthreatening": 8667,
      "Ġdeserve": 8668,
      "Ġbart": 8669,
      "isp": 8670,
      "Ġbottle": 8671,
      "pled": 8672,
      "Ġassigned": 8673,
      "Ġuniform": 8674,
      "Ġfing": 8675,
      "Ġka": 8676,
      "Ġblake": 8677,
      "Ġtiming": 8678,
      "Ġassumed": 8679,
      "Ġadvocate": 8680,
      "iture": 8681,
      "Ġadvertisements": 8682,
      "Ġfacilit": 8683,
      "shot": 8684,
      "Ġtired": 8685,
      "Ġkhan": 8686,
      "player": 8687,
      "Ġ99": 8688,
      "Ġpromising": 8689,
      "Ġther": 8690,
      "Ġcontinent": 8691,
      "Ġpython": 8692,
      "ratic": 8693,
      "icket": 8694,
      "Ġcontrary": 8695,
      "Ġmate": 8696,
      "ader": 8697,
      "Ġcort": 8698,
      "Ġstepped": 8699,
      "Ġsubstance": 8700,
      "Ġ1993": 8701,
      "Ġinches": 8702,
      "Ġtremend": 8703,
      "hot": 8704,
      "fers": 8705,
      "Ġsignals": 8706,
      "Ġbass": 8707,
      "Ġchase": 8708,
      "Ġ1950": 8709,
      "Ġphoenix": 8710,
      "Ġvietnam": 8711,
      "fit": 8712,
      "map": 8713,
      "Ġfunctional": 8714,
      "Ġcredits": 8715,
      "Ġanimation": 8716,
      "math": 8717,
      "Ġweakness": 8718,
      "Ġsli": 8719,
      "Ġeager": 8720,
      "Ġorth": 8721,
      "Ġgrace": 8722,
      "tenance": 8723,
      "Ġmanufacturers": 8724,
      "Ġft": 8725,
      "osystem": 8726,
      "lined": 8727,
      "ĠÍ": 8728,
      "Ġcord": 8729,
      "ropri": 8730,
      "Ġhosted": 8731,
      "Ġdamaged": 8732,
      "Ġdefeated": 8733,
      "Ġtheories": 8734,
      "stitution": 8735,
      "Ġgates": 8736,
      "Ġgib": 8737,
      "Ġimpression": 8738,
      "Ġperceived": 8739,
      "Ġultra": 8740,
      "onsored": 8741,
      "Ġbias": 8742,
      "Ġfatal": 8743,
      "Ġpulling": 8744,
      "Ġdiscussing": 8745,
      "Ġguards": 8746,
      "Ġopenly": 8747,
      "Ġpresentation": 8748,
      "Ġpentagon": 8749,
      "Ġbeating": 8750,
      "Ġpossess": 8751,
      "Ġcoaching": 8752,
      "Ġaged": 8753,
      "Ġprin": 8754,
      "Ġcm": 8755,
      "Ġmorgan": 8756,
      "ql": 8757,
      "Ġhelic": 8758,
      "Ġbrexit": 8759,
      "Ġeligible": 8760,
      "Ġdiamond": 8761,
      "Ġsacrif": 8762,
      "Ġpitts": 8763,
      "Ġdefender": 8764,
      "Ġpicking": 8765,
      "Ġease": 8766,
      "Ġintegration": 8767,
      "Ġnerv": 8768,
      "omed": 8769,
      "Ġcenturies": 8770,
      "Ġembed": 8771,
      "Ġlessons": 8772,
      "Ġsciences": 8773,
      "Ġscrut": 8774,
      "Ġrepair": 8775,
      "low": 8776,
      "Ġrecruit": 8777,
      "Ġorient": 8778,
      "Ġsupplement": 8779,
      "Ġkentucky": 8780,
      "Ġtennessee": 8781,
      "Ġpollution": 8782,
      "Ġextraordinary": 8783,
      "black": 8784,
      "Ġethics": 8785,
      "Ġthompson": 8786,
      "Ġfollowers": 8787,
      "pted": 8788,
      "Ġdominant": 8789,
      "Ġmah": 8790,
      "Ġremoval": 8791,
      "Ġshoes": 8792,
      "Ġalert": 8793,
      "commun": 8794,
      "Ġstudying": 8795,
      "uten": 8796,
      "Ġtrek": 8797,
      "section": 8798,
      "estyle": 8799,
      "Ġbiological": 8800,
      "Ġinvasion": 8801,
      "ctic": 8802,
      "Ġmarx": 8803,
      "market": 8804,
      "lay": 8805,
      "Ġanne": 8806,
      "stri": 8807,
      "oln": 8808,
      "Ġundert": 8809,
      "Ġsla": 8810,
      "vo": 8811,
      "Ġlegally": 8812,
      "lfriend": 8813,
      "ributes": 8814,
      "Ġtempor": 8815,
      "bury": 8816,
      "quest": 8817,
      "Ġmichel": 8818,
      "Ġindicates": 8819,
      "Ġendorse": 8820,
      "Ġnurs": 8821,
      "Ġcontacted": 8822,
      "Ġcriter": 8823,
      "Ġartificial": 8824,
      "Ġkilomet": 8825,
      "Ġwet": 8826,
      "Ġtreaty": 8827,
      "Ġ(\"": 8828,
      "link": 8829,
      "opher": 8830,
      "Ġlineup": 8831,
      "Ġearthqu": 8832,
      "Ġprospects": 8833,
      "Ġmanifest": 8834,
      "llah": 8835,
      "eries": 8836,
      "Ġ56": 8837,
      "Ġjenn": 8838,
      "Ġmanh": 8839,
      "ounding": 8840,
      "Ġtweets": 8841,
      "Ġpartly": 8842,
      "Ġbillions": 8843,
      "value": 8844,
      "Ġcognitive": 8845,
      "oli": 8846,
      "Ġperception": 8847,
      "Ġobsc": 8848,
      "Ġfundra": 8849,
      "Ġtreasury": 8850,
      "Ġinvalid": 8851,
      "vens": 8852,
      "Ġwise": 8853,
      "omy": 8854,
      "Ġassad": 8855,
      "agic": 8856,
      "Ġbeings": 8857,
      "Ġperiods": 8858,
      "Ġreds": 8859,
      "two": 8860,
      "Ġarrival": 8861,
      "Ġsubmit": 8862,
      "Ġconsciousness": 8863,
      "Ġeveryday": 8864,
      "Ġshirt": 8865,
      "Ġcorrupt": 8866,
      "ials": 8867,
      "Ġguests": 8868,
      "Ġhud": 8869,
      "Ġwales": 8870,
      "Ġbenefic": 8871,
      "Ġworlds": 8872,
      "Ġupload": 8873,
      "Ġmoderate": 8874,
      "tax": 8875,
      "Ġdelhi": 8876,
      "Ġfert": 8877,
      "Ġpist": 8878,
      "Ġmurray": 8879,
      "Ġstruggled": 8880,
      "Ġsou": 8881,
      "Ġsustainable": 8882,
      "Ġ120": 8883,
      "Ġgrey": 8884,
      "Ġviolations": 8885,
      "Ġmaintenance": 8886,
      "Ġnich": 8887,
      "ems": 8888,
      "Ġknock": 8889,
      "wall": 8890,
      "Ġrequiring": 8891,
      "count": 8892,
      "Ġconservation": 8893,
      "Ġacknowledge": 8894,
      "Ġrhetoric": 8895,
      "Ġunderlying": 8896,
      "Ġclark": 8897,
      "Ġhomosexual": 8898,
      "zo": 8899,
      "Ġharper": 8900,
      "Ġlibya": 8901,
      "lord": 8902,
      "itudes": 8903,
      "Ġ57": 8904,
      "Ġovercome": 8905,
      "Ġdal": 8906,
      "Ġventure": 8907,
      "Ġbone": 8908,
      "ili": 8909,
      "Ġgenre": 8910,
      "Ġdiplomatic": 8911,
      "Ġhire": 8912,
      "vol": 8913,
      "remy": 8914,
      "Ġsentenced": 8915,
      "Ġaccord": 8916,
      "Ġcraig": 8917,
      "Ġhelicop": 8918,
      "Ġecosystem": 8919,
      "Ġemployers": 8920,
      "Ġinsult": 8921,
      "Ġpreferred": 8922,
      "mble": 8923,
      "uan": 8924,
      "lando": 8925,
      "Ġconcepts": 8926,
      "Ġescal": 8927,
      "del": 8928,
      "Ġtons": 8929,
      "Ġht": 8930,
      "Ġcharlie": 8931,
      "Ġancest": 8932,
      "Ġicon": 8933,
      "Ġintercept": 8934,
      "Ġmillenn": 8935,
      "########": 8936,
      "child": 8937,
      "ght": 8938,
      "Ġpermit": 8939,
      "date": 8940,
      "Ġbacking": 8941,
      "Ġpub": 8942,
      "Ġkr": 8943,
      "Ġconfiguration": 8944,
      "Ġburst": 8945,
      "Ġcollaps": 8946,
      "Ġathletes": 8947,
      "Ġbio": 8948,
      "rine": 8949,
      "Ġministers": 8950,
      "Ġstance": 8951,
      "Ġcole": 8952,
      "angle": 8953,
      "Ġtraged": 8954,
      "Ġunfair": 8955,
      "Ġmanual": 8956,
      "2012": 8957,
      "Ġaddresses": 8958,
      "Ġrequirement": 8959,
      "Ġvolunteers": 8960,
      "Ġreserv": 8961,
      "Ġphill": 8962,
      "rations": 8963,
      "Ġvocal": 8964,
      "hist": 8965,
      "Ġcomey": 8966,
      "pd": 8967,
      "Ġcreatures": 8968,
      "Ġcollaboration": 8969,
      "Ġtheft": 8970,
      "Ġnose": 8971,
      "93": 8972,
      "roph": 8973,
      "Ġmissouri": 8974,
      "Ġyang": 8975,
      "Ġoccurs": 8976,
      "iti": 8977,
      "ylum": 8978,
      "Ġmouse": 8979,
      "Ġpolar": 8980,
      "Ġwildlife": 8981,
      "Ġembass": 8982,
      "Ġinteraction": 8983,
      "orous": 8984,
      "note": 8985,
      "Ġunpre": 8986,
      "Ġtorn": 8987,
      "Ġgameplay": 8988,
      "Ġ1991": 8989,
      "Ġconcerning": 8990,
      "last": 8991,
      "Ġrecession": 8992,
      "Ġholl": 8993,
      "Ġsubsequently": 8994,
      "Ġfier": 8995,
      "Ġsem": 8996,
      "abs": 8997,
      "Ġkeen": 8998,
      "Ġflavor": 8999,
      "84": 9000,
      "Ġchrome": 9001,
      "Ġdelight": 9002,
      "bul": 9003,
      "Ġconstitu": 9004,
      "Ġcompensation": 9005,
      "Ġgordon": 9006,
      "iac": 9007,
      "Ġchuck": 9008,
      "Ġinspiration": 9009,
      "Ġunprecedented": 9010,
      "Ġbits": 9011,
      "Ġunve": 9012,
      "Ġstops": 9013,
      "igenous": 9014,
      "cute": 9015,
      "Ġemotions": 9016,
      "Ġapproaches": 9017,
      "Ġtodd": 9018,
      "Ġsegment": 9019,
      "being": 9020,
      "Ġmood": 9021,
      "Ġmomentum": 9022,
      "Ġanswered": 9023,
      "function": 9024,
      "Ġaaron": 9025,
      "Ġpap": 9026,
      "Ġwireless": 9027,
      "has": 9028,
      "Ġposting": 9029,
      "Ġstimul": 9030,
      "Ġparallel": 9031,
      "Ġlesson": 9032,
      "Ġprofessionals": 9033,
      "Ġfrequent": 9034,
      "Ġmol": 9035,
      "xture": 9036,
      "Ġanch": 9037,
      "Ġpunishment": 9038,
      "Ġsubstit": 9039,
      "Ġthro": 9040,
      "Ġ250": 9041,
      "Ġknife": 9042,
      "Ġmountains": 9043,
      "hero": 9044,
      "Ġchronic": 9045,
      "Ġeliminate": 9046,
      "Ġcastle": 9047,
      "ateral": 9048,
      "brid": 9049,
      "screen": 9050,
      "Ġpackages": 9051,
      "94": 9052,
      "Ġblu": 9053,
      "Ġradiation": 9054,
      "gered": 9055,
      "Ġheaven": 9056,
      "Ġrecommendations": 9057,
      "nan": 9058,
      "Ġthunder": 9059,
      "oded": 9060,
      "Ġsurprisingly": 9061,
      "orig": 9062,
      "father": 9063,
      "looking": 9064,
      "erce": 9065,
      "Ġprobe": 9066,
      "Ġappeals": 9067,
      "Ġridiculous": 9068,
      "Ġrud": 9069,
      "Ġnowhere": 9070,
      "Ġrug": 9071,
      "Ġcounterpart": 9072,
      "anim": 9073,
      "ela": 9074,
      "Ġinstances": 9075,
      "Ġcous": 9076,
      "Ġbour": 9077,
      "Ġathletic": 9078,
      "Ġvoid": 9079,
      "Ġfled": 9080,
      "Ġhypothes": 9081,
      "liest": 9082,
      "Ġwiz": 9083,
      "Ġboxes": 9084,
      "Ġencouraging": 9085,
      "bacco": 9086,
      "somet": 9087,
      "Ġpoet": 9088,
      "Ġhanging": 9089,
      "82": 9090,
      "lif": 9091,
      "Ġprovider": 9092,
      "Ġrifle": 9093,
      "Ġlaboratory": 9094,
      "Ġcompos": 9095,
      "check": 9096,
      "Ġpregnant": 9097,
      "eared": 9098,
      "aki": 9099,
      "Ġrussell": 9100,
      "acked": 9101,
      "Ġcommod": 9102,
      "83": 9103,
      "Ġasylum": 9104,
      "than": 9105,
      "Ġinterviewed": 9106,
      "Ġpromotion": 9107,
      "grad": 9108,
      "Ġconvince": 9109,
      "iban": 9110,
      "Ġcheaper": 9111,
      "Ġlift": 9112,
      "olds": 9113,
      "Ġcouples": 9114,
      "Ġfilter": 9115,
      "Ġquantum": 9116,
      "Ġwedding": 9117,
      "Ġtale": 9118,
      "Ġfried": 9119,
      "Ġcapitol": 9120,
      "Ġnevada": 9121,
      "Ġdean": 9122,
      "Ġbrooklyn": 9123,
      "reuters": 9124,
      "Ġoutstanding": 9125,
      "Ġcalend": 9126,
      "Ġcraw": 9127,
      "Ġtraveling": 9128,
      "Ġlap": 9129,
      "Ġspeakers": 9130,
      "Ġconvert": 9131,
      "Ġmatthew": 9132,
      "Ġintegrated": 9133,
      "Ġdot": 9134,
      "Ġreagan": 9135,
      "Ġoutlets": 9136,
      "Ġkal": 9137,
      "izza": 9138,
      "Ġexclud": 9139,
      "hire": 9140,
      "Ġresolve": 9141,
      "Ġconclus": 9142,
      "Ã±": 9143,
      "Ġbeast": 9144,
      "Ġbun": 9145,
      "nas": 9146,
      "Ġcamps": 9147,
      "Ġlean": 9148,
      "Ġsalv": 9149,
      "ethe": 9150,
      "irm": 9151,
      "Ġdemanded": 9152,
      "Ġholes": 9153,
[...]
